{
  "0": "\n",
  "1": " ",
  "2": "!",
  "3": "\"",
  "4": "#",
  "5": "$",
  "6": "%",
  "7": "&",
  "8": "'",
  "9": "(",
  "10": ")",
  "11": "*",
  "12": "+",
  "13": ",",
  "14": "-",
  "15": ".",
  "16": "/",
  "17": "0",
  "18": "1",
  "19": "2",
  "20": "3",
  "21": "4",
  "22": "5",
  "23": "6",
  "24": "7",
  "25": "8",
  "26": "9",
  "27": ":",
  "28": ";",
  "29": "<",
  "30": "=",
  "31": ">",
  "32": "?",
  "33": "@",
  "34": "A",
  "35": "B",
  "36": "C",
  "37": "D",
  "38": "E",
  "39": "F",
  "40": "G",
  "41": "H",
  "42": "I",
  "43": "J",
  "44": "K",
  "45": "L",
  "46": "M",
  "47": "N",
  "48": "O",
  "49": "P",
  "50": "Q",
  "51": "R",
  "52": "S",
  "53": "T",
  "54": "U",
  "55": "V",
  "56": "W",
  "57": "X",
  "58": "Y",
  "59": "Z",
  "60": "[",
  "61": "\\",
  "62": "]",
  "63": "_",
  "64": "`",
  "65": "a",
  "66": "b",
  "67": "c",
  "68": "d",
  "69": "e",
  "70": "f",
  "71": "g",
  "72": "h",
  "73": "i",
  "74": "j",
  "75": "k",
  "76": "l",
  "77": "m",
  "78": "n",
  "79": "o",
  "80": "p",
  "81": "q",
  "82": "r",
  "83": "s",
  "84": "t",
  "85": "u",
  "86": "v",
  "87": "w",
  "88": "x",
  "89": "y",
  "90": "z",
  "91": "{",
  "92": "}",
  "93": "\u00a0",
  "94": "\u00a1",
  "95": "\u00a3",
  "96": "\u00b0",
  "97": "\u00bc",
  "98": "\u00c9",
  "99": "\u00d3",
  "100": "\u00e0",
  "101": "\u00e1",
  "102": "\u00e3",
  "103": "\u00e4",
  "104": "\u00e7",
  "105": "\u00e8",
  "106": "\u00e9",
  "107": "\u00ec",
  "108": "\u00ed",
  "109": "\u00ee",
  "110": "\u00ef",
  "111": "\u00f1",
  "112": "\u00f3",
  "113": "\u00f4",
  "114": "\u00f6",
  "115": "\u00fa",
  "116": "\u00fc",
  "117": "\u0101",
  "118": "\u010c",
  "119": "\u011f",
  "120": "\u012b",
  "121": "\u0130",
  "122": "\u0142",
  "123": "\u014d",
  "124": "\u015b",
  "125": "\u016b",
  "126": "\u02bc",
  "127": "\u200a",
  "128": "\u200b",
  "129": "\u2013",
  "130": "\u2014",
  "131": "\u2015",
  "132": "\u2018",
  "133": "\u2019",
  "134": "\u201a",
  "135": "\u201c",
  "136": "\u201d",
  "137": "\u2026",
  "138": "\u2153",
  "139": "\u266a",
  "140": "\u266b",
  "141": "\ua789",
  "142": "\ufeff",
  "143": "\ufffd",
  "144": "e ",
  "145": " t",
  "146": "s ",
  "147": " th",
  "148": "in",
  "149": "t ",
  "150": "er",
  "151": "an",
  "152": "d ",
  "153": "on",
  "154": ". ",
  "155": "ou",
  "156": "en",
  "157": "y ",
  "158": "or",
  "159": " the ",
  "160": "o ",
  "161": "ar",
  "162": "th",
  "163": "al",
  "164": "at",
  "165": "ing",
  "166": "re",
  "167": ", ",
  "168": "of",
  "169": "a ",
  "170": "st",
  "171": "it",
  "172": "ic",
  "173": "es",
  "174": "at ",
  "175": "om",
  "176": "ing ",
  "177": "is ",
  "178": "and ",
  "179": " to ",
  "180": "ed ",
  "181": "of ",
  "182": "ion",
  "183": "ac",
  "184": "ow",
  "185": "wh",
  "186": "il",
  "187": "el",
  "188": "er ",
  "189": "ha",
  "190": "is",
  "191": "all",
  "192": "ed",
  "193": "es ",
  "194": "you",
  "195": "ec",
  "196": "in ",
  "197": "us",
  "198": "as",
  "199": "for",
  "200": "an ",
  "201": "e th",
  "202": "ig",
  "203": "Th",
  "204": " the",
  "205": "ol",
  "206": "pl",
  "207": " that ",
  "208": "ve ",
  "209": "im",
  "210": "as ",
  "211": "en ",
  "212": "id",
  "213": "ch",
  "214": "ent",
  "215": "ro",
  "216": "am",
  "217": "et",
  "218": "ir",
  "219": "ver",
  "220": "it ",
  "221": ". Th",
  "222": " w",
  "223": "li",
  "224": "'s ",
  "225": "ab",
  "226": "ur",
  "227": "em",
  "228": "k ",
  "229": "and",
  "230": "os",
  "231": "al ",
  "232": "un",
  "233": "you ",
  "234": "ad",
  "235": ". I",
  "236": "ere ",
  "237": "ay",
  "238": "oo",
  "239": "ith",
  "240": "le",
  "241": ". A",
  "242": " s",
  "243": "to ",
  "244": "igh",
  "245": "ag",
  "246": " c",
  "247": "ut",
  "248": "ation",
  "249": " m",
  "250": "are ",
  "251": "pe",
  "252": "be",
  "253": "ak",
  "254": "ot",
  "255": "ut ",
  "256": "oun",
  "257": "if",
  "258": "ul",
  "259": "ot ",
  "260": "ne",
  "261": "res",
  "262": "fr",
  "263": "lik",
  "264": "ill",
  "265": "on ",
  "266": "ent ",
  "267": "e s",
  "268": "e w",
  "269": "oul",
  "270": "pro",
  "271": "have ",
  "272": "ly ",
  "273": " this ",
  "274": " to",
  "275": "com",
  "276": "ally ",
  "277": "ex",
  "278": "\u2019s ",
  "279": "\nth",
  "280": "of the ",
  "281": "up",
  "282": "ear",
  "283": "um",
  "284": "for ",
  "285": " that",
  "286": "out ",
  "287": "bl",
  "288": ". An",
  "289": "now",
  "290": "in the ",
  "291": "op",
  "292": "con",
  "293": "ri",
  "294": " d",
  "295": "se",
  "296": "ap",
  "297": "sh",
  "298": "opl",
  "299": "our",
  "300": " they ",
  "301": "e\n",
  "302": ". B",
  "303": " b",
  "304": "with",
  "305": "ould ",
  "306": "ev",
  "307": "from",
  "308": "peopl",
  "309": "n ",
  "310": "act",
  "311": "art",
  "312": "int",
  "313": "est",
  "314": "h ",
  "315": "oc",
  "316": "go",
  "317": "ep",
  "318": "was ",
  "319": "ay ",
  "320": "or ",
  "321": "ant",
  "322": "e the ",
  "323": "ect",
  "324": "be ",
  "325": "di",
  "326": "ra",
  "327": "one ",
  "328": "e, ",
  "329": ". S",
  "330": "wor",
  "331": "ers ",
  "332": "s, ",
  "333": "'t ",
  "334": "oth",
  "335": "out",
  "336": "..",
  "337": "mor",
  "338": "ust ",
  "339": "qu",
  "340": "e c",
  "341": "ist",
  "342": "uc",
  "343": "so ",
  "344": "per",
  "345": "not ",
  "346": "re ",
  "347": "ere",
  "348": "ion ",
  "349": ". W",
  "350": "s\n",
  "351": "know",
  "352": "gr",
  "353": "ong",
  "354": "ov",
  "355": "ell",
  "356": "like ",
  "357": "oug",
  "358": "we",
  "359": "le ",
  "360": ". And ",
  "361": "just ",
  "362": "tr",
  "363": ",\n",
  "364": "? ",
  "365": "enc",
  "366": "do",
  "367": "et ",
  "368": "m ",
  "369": "ey ",
  "370": "iv",
  "371": "aus",
  "372": "som",
  "373": ". The ",
  "374": "ight ",
  "375": "bec",
  "376": "ed to ",
  "377": "a l",
  "378": "we ",
  "379": " their",
  "380": "how",
  "381": "I ",
  "382": "people ",
  "383": "ate ",
  "384": "what ",
  "385": "sp",
  "386": "ese ",
  "387": "about ",
  "388": "00",
  "389": "cl",
  "390": "ort",
  "391": "mak",
  "392": " and ",
  "393": "od",
  "394": "end",
  "395": " tr",
  "396": "si",
  "397": "but ",
  "398": "ost ",
  "399": "\" ",
  "400": "he",
  "401": "pr",
  "402": "ang",
  "403": "very ",
  "404": "ight",
  "405": "year",
  "406": ": ",
  "407": "s of ",
  "408": "from ",
  "409": "ess",
  "410": "loo",
  "411": "ies ",
  "412": "has ",
  "413": "fe",
  "414": "y\n",
  "415": "e of ",
  "416": "ing to ",
  "417": "all ",
  "418": "'re ",
  "419": "eth",
  "420": "str",
  "421": "anc",
  "422": "w ",
  "423": "who ",
  "424": "ain",
  "425": "ough",
  "426": "ic ",
  "427": "\u201d ",
  "428": "rec",
  "429": "it's ",
  "430": ". But ",
  "431": "your",
  "432": "de",
  "433": "were ",
  "434": "with ",
  "435": "ity ",
  "436": ", the ",
  "437": "more ",
  "438": "ack",
  "439": "s and ",
  "440": "mer",
  "441": "can ",
  "442": "e. ",
  "443": "ud",
  "444": "s. ",
  "445": "und",
  "446": "pol",
  "447": " thin",
  "448": "ter",
  "449": "19",
  "450": "any ",
  "451": "pres",
  "452": "iz",
  "453": "by ",
  "454": "way",
  "455": "ob",
  "456": "y, ",
  "457": "over",
  "458": "whic",
  "459": " of ",
  "460": "af",
  "461": "s to ",
  "462": "a s",
  "463": "ame ",
  "464": "other ",
  "465": "20",
  "466": "ound",
  "467": "ive ",
  "468": "est ",
  "469": "par",
  "470": " the s",
  "471": "really ",
  "472": "had ",
  "473": "ind",
  "474": "when ",
  "475": "ose ",
  "476": "\nthe ",
  "477": "becaus",
  "478": "\u2019t ",
  "479": "e that ",
  "480": "ug",
  "481": "inc",
  "482": "av",
  "483": "fer",
  "484": "i>",
  "485": "ous",
  "486": "fl",
  "487": "pp",
  "488": ".\" ",
  "489": "ill ",
  "490": "port",
  "491": "most ",
  "492": "meric",
  "493": " tim",
  "494": "s the ",
  "495": "fir",
  "496": "f ",
  "497": "get",
  "498": "ar ",
  "499": "been ",
  "500": " these ",
  "501": "ing\n",
  "502": " their ",
  "503": "Americ",
  "504": "ind ",
  "505": "ast",
  "506": "ation ",
  "507": "me",
  "508": "own",
  "509": "get ",
  "510": "do ",
  "511": "n't ",
  "512": "ing the ",
  "513": "ey",
  "514": "his ",
  "515": "uch",
  "516": "if ",
  "517": "ies",
  "518": "a b",
  "519": "ack ",
  "520": "don",
  "521": "on the ",
  "522": "coun",
  "523": "pre",
  "524": ". And",
  "525": "ard",
  "526": "ans ",
  "527": "p ",
  "528": "ment",
  "529": "pos",
  "530": "th ",
  "531": "ide",
  "532": "You",
  "533": "- ",
  "534": "he ",
  "535": "a m",
  "536": "ign",
  "537": "ter ",
  "538": ". It",
  "539": "king ",
  "540": ", and ",
  "541": "... ",
  "542": "ass",
  "543": " there ",
  "544": "po",
  "545": "ust",
  "546": ". Wh",
  "547": "part",
  "548": "ef",
  "549": "ly",
  "550": "to",
  "551": "ph",
  "552": "st ",
  "553": "our ",
  "554": " to the ",
  "555": ".\u201d ",
  "556": "ad ",
  "557": "ord",
  "558": "ubl",
  "559": "hav",
  "560": "aw",
  "561": ". So ",
  "562": " was ",
  "563": "ually ",
  "564": "i> ",
  "565": "ed the ",
  "566": "s that ",
  "567": ".\n",
  "568": "e to ",
  "569": " with",
  "570": "at the ",
  "571": "a c",
  "572": "inter",
  "573": "my ",
  "574": "oll",
  "575": "ed\n",
  "576": " they",
  "577": ". It ",
  "578": "sc",
  "579": "would ",
  "580": "id ",
  "581": "us ",
  "582": "ever",
  "583": "its ",
  "584": "ely ",
  "585": "ure",
  "586": ". This ",
  "587": "about",
  "588": "reat",
  "589": "ast ",
  "590": "og",
  "591": "ound ",
  "592": " the\n",
  "593": "a lot ",
  "594": "ment ",
  "595": "where ",
  "596": "e and ",
  "597": "off",
  "598": "also ",
  "599": " them",
  "600": "itt",
  "601": "br",
  "602": "and the ",
  "603": "ess ",
  "604": " there",
  "605": "able ",
  "606": " tak",
  "607": "chang",
  "608": "t of ",
  "609": "bu",
  "610": "ens",
  "611": "ood ",
  "612": "up ",
  "613": "your ",
  "614": "dis",
  "615": "but",
  "616": "Tr",
  "617": "ans",
  "618": "ach",
  "619": "happ",
  "620": "ant ",
  "621": "dif",
  "622": "Ch",
  "623": "vi",
  "624": "ical ",
  "625": "no ",
  "626": ". H",
  "627": "ial ",
  "628": "ks ",
  "629": "ll",
  "630": "know ",
  "631": "I'",
  "632": "rem",
  "633": "hel",
  "634": "start",
  "635": "An",
  "636": "duc",
  "637": "form",
  "638": "ult",
  "639": "ure ",
  "640": "mon",
  "641": "ity",
  "642": "St",
  "643": "The ",
  "644": "ild",
  "645": "even ",
  "646": "was",
  "647": "not",
  "648": "into ",
  "649": "ict",
  "650": "lin",
  "651": "which ",
  "652": "plac",
  "653": "ip",
  "654": "what",
  "655": "US",
  "656": "es, ",
  "657": ". O",
  "658": "any",
  "659": "gu",
  "660": "gover",
  "661": "ome ",
  "662": "att",
  "663": "inv",
  "664": "for the ",
  "665": "govern",
  "666": "sid",
  "667": "Trum",
  "668": "ath",
  "669": "rat",
  "670": "differ",
  "671": "call",
  "672": " think ",
  "673": "age ",
  "674": "actually ",
  "675": "high",
  "676": "ous ",
  "677": "dec",
  "678": "stat",
  "679": "ings ",
  "680": ". But",
  "681": "much",
  "682": "ail",
  "683": "so",
  "684": "acc",
  "685": "own ",
  "686": "y the ",
  "687": "new",
  "688": "ions ",
  "689": "des",
  "690": "ublic",
  "691": "ers",
  "692": "ould",
  "693": "iss",
  "694": "ful",
  "695": "reas",
  "696": "ick",
  "697": "some ",
  "698": "el ",
  "699": "ow ",
  "700": "cont",
  "701": "ub",
  "702": "stor",
  "703": "going to ",
  "704": "work",
  "705": "econ",
  "706": "only ",
  "707": "over ",
  "708": "ary ",
  "709": "worl",
  "710": "0 ",
  "711": "ish",
  "712": "cr",
  "713": ". They ",
  "714": "vot",
  "715": "look ",
  "716": " this",
  "717": "ite ",
  "718": "comp",
  "719": "first ",
  "720": "yst",
  "721": "tim",
  "722": "right ",
  "723": "bet",
  "724": "comm",
  "725": " thr",
  "726": "every",
  "727": "ice ",
  "728": "eas",
  "729": "elect",
  "730": "kind ",
  "731": "wo ",
  "732": "\nthat ",
  "733": "\nto ",
  "734": "ated ",
  "735": "under",
  "736": " that's ",
  "737": "happen",
  "738": "could ",
  "739": " those ",
  "740": "because ",
  "741": " then ",
  "742": "ost",
  "743": "ident",
  "744": "air",
  "745": "arg",
  "746": "ain ",
  "747": "mad",
  "748": "fin",
  "749": "polit",
  "750": ". In ",
  "751": "201",
  "752": "right",
  "753": "did",
  "754": "it\u2019s ",
  "755": "ting ",
  "756": "n\u2019t ",
  "757": "make ",
  "758": "how ",
  "759": "big",
  "760": "reg",
  "761": "ire",
  "762": "mov",
  "763": "bas",
  "764": "sur",
  "765": "ant to ",
  "766": "ener",
  "767": "e was ",
  "768": "</",
  "769": "sel",
  "770": "ood",
  "771": "someth",
  "772": "min",
  "773": "leg",
  "774": "pow",
  "775": "ong ",
  "776": "vers",
  "777": "ke",
  "778": "Wh",
  "779": "end ",
  "780": "ence ",
  "781": "gl",
  "782": "a t",
  "783": " them ",
  "784": "go ",
  "785": "urn",
  "786": "ell ",
  "787": "fac",
  "788": "s are ",
  "789": "emb",
  "790": "ystem",
  "791": " think",
  "792": "cho",
  "793": "a h",
  "794": "eng",
  "795": "</i> ",
  "796": "ea",
  "797": "say",
  "798": "is the ",
  "799": "countr",
  "800": "Un",
  "801": "umb",
  "802": "sup",
  "803": "\u2014 ",
  "804": "back",
  "805": "atch",
  "806": "had",
  "807": "\u2019re ",
  "808": "\nand ",
  "809": "read",
  "810": "ew",
  "811": "it was ",
  "812": "day",
  "813": "him",
  "814": "car",
  "815": "have to ",
  "816": "ann",
  "817": "kind of ",
  "818": "which",
  "819": "ed in ",
  "820": "play",
  "821": "gre",
  "822": "befor",
  "823": " than ",
  "824": "'ve ",
  "825": "ough ",
  "826": "ty ",
  "827": "e this ",
  "828": "lear",
  "829": "lat",
  "830": "rain",
  "831": "many ",
  "832": ". M",
  "833": "old ",
  "834": "ark",
  "835": "a lot of ",
  "836": "blem",
  "837": ". It's ",
  "838": "erv",
  "839": "don't ",
  "840": "s in ",
  "841": "from the ",
  "842": "see ",
  "843": "old",
  "844": "here ",
  "845": "every ",
  "846": "arm",
  "847": "ook ",
  "848": "ition",
  "849": "problem",
  "850": "y to ",
  "851": ". So",
  "852": "again",
  "853": "er, ",
  "854": "is a ",
  "855": "\nof ",
  "856": "just",
  "857": "tion",
  "858": "ox",
  "859": "new ",
  "860": "] ",
  "861": "tri",
  "862": ". You",
  "863": "being ",
  "864": "prot",
  "865": "e with",
  "866": "does",
  "867": "ically ",
  "868": "pop",
  "869": "pa",
  "870": "into",
  "871": "la",
  "872": "son",
  "873": "hear",
  "874": "I w",
  "875": "liv",
  "876": "you w",
  "877": "ked ",
  "878": "ussi",
  "879": "fact",
  "880": "ros",
  "881": "way ",
  "882": "ect ",
  "883": ". In",
  "884": "In",
  "885": "Rep",
  "886": "eli",
  "887": "fect",
  "888": "fam",
  "889": "ist ",
  "890": "keep",
  "891": "I d",
  "892": "produc",
  "893": "en the ",
  "894": "heal",
  "895": "ident ",
  "896": "eg",
  "897": "il ",
  "898": "rit",
  "899": "ard ",
  "900": "dr",
  "901": "ing, ",
  "902": "ris",
  "903": "ally",
  "904": "ing that ",
  "905": "e in ",
  "906": "can",
  "907": " with ",
  "908": "let",
  "909": "Russi",
  "910": "rac",
  "911": "help",
  "912": "eir",
  "913": " con",
  "914": "why ",
  "915": " that the ",
  "916": "quest",
  "917": "down",
  "918": "ited ",
  "919": "ilit",
  "920": "ial",
  "921": "por",
  "922": "you're ",
  "923": "ech",
  "924": "Trump",
  "925": "ric",
  "926": ". That",
  "927": "\u00a0\n",
  "928": "her ",
  "929": "e that",
  "930": "and\n",
  "931": ". That ",
  "932": "years ",
  "933": "med",
  "934": "ents ",
  "935": "got ",
  "936": "sa",
  "937": "ver ",
  "938": "exp",
  "939": ", they ",
  "940": "bod",
  "941": "i ",
  "942": "now ",
  "943": " com",
  "944": "art ",
  "945": " me",
  "946": "good ",
  "947": "show",
  "948": ". F",
  "949": "got",
  "950": "es and ",
  "951": "istor",
  "952": "ik",
  "953": "a\n",
  "954": "bab",
  "955": "you can ",
  "956": "numb",
  "957": "ew ",
  "958": "yp",
  "959": "American ",
  "960": "...",
  "961": "compl",
  "962": "ach ",
  "963": "a f",
  "964": "Republic",
  "965": "am ",
  "966": "oy",
  "967": "man",
  "968": "wom",
  "969": "might ",
  "970": "ine ",
  "971": "prov",
  "972": "ed by ",
  "973": "co",
  "974": "olog",
  "975": "es\n",
  "976": "e they ",
  "977": "emoc",
  "978": "nation",
  "979": "low",
  "980": ". T",
  "981": "you know",
  "982": ", but ",
  "983": "ever ",
  "984": ". L",
  "985": "I'm ",
  "986": "exper",
  "987": "ash",
  "988": "illion",
  "989": "es to ",
  "990": " mor",
  "991": "And ",
  "992": "forc",
  "993": "grou",
  "994": " tal",
  "995": "plan",
  "996": ". I ",
  "997": "her",
  "998": "usic",
  "999": " there's ",
  "1000": ". N",
  "1001": "ble ",
  "1002": "popul",
  "1003": "in a ",
  "1004": "lif",
  "1005": "government ",
  "1006": "clud",
  "1007": "import",
  "1008": "beg",
  "1009": "vide",
  "1010": "back ",
  "1011": ". We ",
  "1012": "Chin",
  "1013": "ittle ",
  "1014": "come ",
  "1015": "ia ",
  "1016": "after ",
  "1017": "stud",
  "1018": "ma",
  "1019": "here",
  "1020": ". E",
  "1021": "<i> ",
  "1022": "sol",
  "1023": "run",
  "1024": "hum",
  "1025": "es of ",
  "1026": "cor",
  "1027": "wher",
  "1028": "vel",
  "1029": "fil",
  "1030": "ste",
  "1031": "ert",
  "1032": " we ",
  "1033": "vir",
  "1034": "riv",
  "1035": "200",
  "1036": "made ",
  "1037": "ret",
  "1038": "ia",
  "1039": ". P",
  "1040": "au",
  "1041": "different ",
  "1042": " can ",
  "1043": "pret",
  "1044": "ext",
  "1045": "day ",
  "1046": "still ",
  "1047": "ern",
  "1048": "earch",
  "1049": "ree ",
  "1050": "histor",
  "1051": "pon",
  "1052": "me ",
  "1053": "whil",
  "1054": "econom",
  "1055": "will",
  "1056": "ll ",
  "1057": "called ",
  "1058": "es that ",
  "1059": "ax",
  "1060": "world",
  "1061": "with the ",
  "1062": "around",
  "1063": " two ",
  "1064": "betwe",
  "1065": "ecaus",
  "1066": "col",
  "1067": "offic",
  "1068": ",00",
  "1069": "cent",
  "1070": "stop",
  "1071": "are",
  "1072": "other",
  "1073": "ors ",
  "1074": "ways ",
  "1075": "bre",
  "1076": "chool",
  "1077": " take ",
  "1078": "oft",
  "1079": " through",
  "1080": ". If ",
  "1081": "orl",
  "1082": "stand",
  "1083": " to\n",
  "1084": " ter",
  "1085": "ates ",
  "1086": ". \"",
  "1087": "nex",
  "1088": "one of the ",
  "1089": "did ",
  "1090": ".\" \"",
  "1091": "cas",
  "1092": "inn",
  "1093": "'s",
  "1094": ". \u201c",
  "1095": "one",
  "1096": "lead",
  "1097": "ations ",
  "1098": "al\n",
  "1099": "land",
  "1100": "ove ",
  "1101": " than",
  "1102": "lim",
  "1103": "something ",
  "1104": "red",
  "1105": "around ",
  "1106": "ement",
  "1107": " time ",
  "1108": "by the ",
  "1109": "invest",
  "1110": "ock",
  "1111": "long",
  "1112": "e sh",
  "1113": "ance ",
  "1114": " thes",
  "1115": "stu",
  "1116": "need",
  "1117": "ating ",
  "1118": "famil",
  "1119": "law",
  "1120": "It",
  "1121": "'t",
  "1122": "ue ",
  "1123": "struc",
  "1124": "vis",
  "1125": "creat",
  "1126": "giv",
  "1127": "e can ",
  "1128": "ari",
  "1129": "US ",
  "1130": "as a ",
  "1131": "job",
  "1132": "all the ",
  "1133": "ed, ",
  "1134": " sh",
  "1135": "polic",
  "1136": "nam",
  "1137": "of\n",
  "1138": "wat",
  "1139": "ign ",
  "1140": "includ",
  "1141": "contr",
  "1142": "real",
  "1143": "ff",
  "1144": "dev",
  "1145": "never ",
  "1146": " we",
  "1147": "group",
  "1148": ". C",
  "1149": "ement ",
  "1150": "sm",
  "1151": "if you ",
  "1152": "hom",
  "1153": "ient",
  "1154": "e than ",
  "1155": "cam",
  "1156": "will ",
  "1157": "ide ",
  "1158": "work ",
  "1159": "onn",
  "1160": "ual ",
  "1161": "ing a ",
  "1162": "less ",
  "1163": "when",
  "1164": "add",
  "1165": "ists ",
  "1166": "se ",
  "1167": "health",
  "1168": "New ",
  "1169": " this is ",
  "1170": "buil",
  "1171": "org",
  "1172": "thing ",
  "1173": "able to ",
  "1174": "er of ",
  "1175": " they're ",
  "1176": "possi",
  "1177": "ok",
  "1178": "! ",
  "1179": "az",
  "1180": "wer",
  "1181": "gener",
  "1182": "probab",
  "1183": "ities ",
  "1184": "ib",
  "1185": "build",
  "1186": " that\n",
  "1187": ". D",
  "1188": " is ",
  "1189": "put",
  "1190": "as the ",
  "1191": "unt",
  "1192": "much ",
  "1193": "proc",
  "1194": "hard",
  "1195": "cons",
  "1196": ". It\u2019s ",
  "1197": "point",
  "1198": "emocrat",
  "1199": "commun",
  "1200": "in this ",
  "1201": "on't ",
  "1202": "imag",
  "1203": "ine",
  "1204": "ed a ",
  "1205": "politic",
  "1206": "pretty ",
  "1207": "ampl",
  "1208": "ution",
  "1209": "nat",
  "1210": "ix",
  "1211": "echn",
  "1212": "ook",
  "1213": "expl",
  "1214": "18",
  "1215": "spec",
  "1216": "ject",
  "1217": "er to ",
  "1218": "have been ",
  "1219": "respon",
  "1220": "ork",
  "1221": "is that ",
  "1222": "rel",
  "1223": "ially ",
  "1224": "ere's ",
  "1225": "eah",
  "1226": "sk",
  "1227": "rect",
  "1228": "y and ",
  "1229": "some",
  "1230": "e-",
  "1231": "ress",
  "1232": "use ",
  "1233": "abl",
  "1234": "ific",
  "1235": "pass",
  "1236": "another ",
  "1237": "you know ",
  "1238": "we're ",
  "1239": "world ",
  "1240": "after",
  "1241": "fre",
  "1242": "put ",
  "1243": " though",
  "1244": "feel",
  "1245": "like th",
  "1246": "about the ",
  "1247": "part ",
  "1248": "mat",
  "1249": "each ",
  "1250": "ian ",
  "1251": "larg",
  "1252": " turn",
  "1253": "impl",
  "1254": "sive ",
  "1255": "idd",
  "1256": "I think ",
  "1257": ". When ",
  "1258": " things ",
  "1259": "a, ",
  "1260": "er and ",
  "1261": "want",
  "1262": "er\n",
  "1263": ". There ",
  "1264": ". A ",
  "1265": "whol",
  "1266": " tra",
  "1267": "say ",
  "1268": "oh",
  "1269": "always ",
  "1270": "\u2019ve ",
  "1271": "system",
  "1272": "design",
  "1273": "body ",
  "1274": "Fr",
  "1275": ", that ",
  "1276": "of this ",
  "1277": "elop",
  "1278": "child",
  "1279": "going ",
  "1280": "o, ",
  "1281": "ship",
  "1282": "ienc",
  "1283": " in ",
  "1284": "black ",
  "1285": "gonn",
  "1286": "stre",
  "1287": "als ",
  "1288": "person",
  "1289": ". This is ",
  "1290": "bor",
  "1291": "hous",
  "1292": "cour",
  "1293": "ish ",
  "1294": "political ",
  "1295": "to the ",
  "1296": "aut",
  "1297": "ake ",
  "1298": "seem",
  "1299": "prom",
  "1300": "used ",
  "1301": "nor",
  "1302": "state ",
  "1303": "a p",
  "1304": "Trump ",
  "1305": "well",
  "1306": "arr",
  "1307": "This ",
  "1308": "\u2019t",
  "1309": "es the ",
  "1310": "eir ",
  "1311": "research",
  "1312": "unch",
  "1313": "into the ",
  "1314": "down ",
  "1315": "last ",
  "1316": "need to ",
  "1317": "people",
  "1318": "United ",
  "1319": "acros",
  "1320": "icul",
  "1321": "mod",
  "1322": "started ",
  "1323": "om ",
  "1324": " som",
  "1325": "ing and ",
  "1326": "we w",
  "1327": "ush",
  "1328": "both",
  "1329": "grap",
  "1330": "y of ",
  "1331": "ion of ",
  "1332": "ally\n",
  "1333": "pec",
  "1334": "first",
  "1335": "flu",
  "1336": " to be ",
  "1337": " that\u2019s ",
  "1338": "pt",
  "1339": "should ",
  "1340": "Ar",
  "1341": " te",
  "1342": "alread",
  "1343": "able",
  "1344": "act ",
  "1345": "sor",
  "1346": "det",
  "1347": "ed that ",
  "1348": "int ",
  "1349": "an\n",
  "1350": "s, and ",
  "1351": "hand",
  "1352": "light",
  "1353": "It ",
  "1354": "cre",
  "1355": "bo",
  "1356": "who",
  "1357": "prof",
  "1358": "son ",
  "1359": "view",
  "1360": " thing",
  "1361": "ural ",
  "1362": "found",
  "1363": "imm",
  "1364": "es are ",
  "1365": "ank",
  "1366": "government",
  "1367": "s,",
  "1368": "for m",
  "1369": "A ",
  "1370": "ave ",
  "1371": "ick ",
  "1372": "ing in ",
  "1373": "power",
  "1374": " be ",
  "1375": "few",
  "1376": "war",
  "1377": "beli",
  "1378": "public",
  "1379": "near",
  "1380": "dat",
  "1381": "before ",
  "1382": "didn't ",
  "1383": "mark",
  "1384": "Nor",
  "1385": "eder",
  "1386": "port ",
  "1387": "struct",
  "1388": "ustr",
  "1389": "kill",
  "1390": "and then ",
  "1391": "en\n",
  "1392": "'s the ",
  "1393": "contin",
  "1394": "ass ",
  "1395": "jor",
  "1396": "e is ",
  "1397": "illion ",
  "1398": "have a ",
  "1399": "'r",
  "1400": "cur",
  "1401": "find ",
  "1402": "getting ",
  "1403": "ett",
  "1404": "increas",
  "1405": "orld ",
  "1406": "Ob",
  "1407": "president ",
  "1408": "ying to ",
  "1409": "lef",
  "1410": ". On",
  "1411": "president",
  "1412": "people who ",
  "1413": " more ",
  "1414": "United St",
  "1415": "\nin ",
  "1416": "geth",
  "1417": "grow",
  "1418": "inform",
  "1419": " tri",
  "1420": "e them",
  "1421": "loc",
  "1422": "\na ",
  "1423": "land ",
  "1424": "almost ",
  "1425": "I was ",
  "1426": "e with ",
  "1427": "cap",
  "1428": "dep",
  "1429": "and they ",
  "1430": "</i> <i> ",
  "1431": "investig",
  "1432": "sinc",
  "1433": "of these ",
  "1434": "country ",
  "1435": "still",
  "1436": " but ",
  "1437": "don\u2019t ",
  "1438": "real ",
  "1439": "Is",
  "1440": "rul",
  "1441": "wr",
  "1442": "probably ",
  "1443": "e of the ",
  "1444": "over the ",
  "1445": "pat",
  "1446": "develop",
  "1447": "conc",
  "1448": "reason",
  "1449": "self",
  "1450": "between ",
  "1451": "ie ",
  "1452": "ept",
  "1453": "igr",
  "1454": "cha",
  "1455": "press",
  "1456": " se",
  "1457": "Mar",
  "1458": "viol",
  "1459": "ym",
  "1460": "ire ",
  "1461": "etim",
  "1462": "e,",
  "1463": "And",
  "1464": "interest",
  "1465": ". They",
  "1466": "year ",
  "1467": "5 ",
  "1468": "want to ",
  "1469": "ious ",
  "1470": "Obam",
  "1471": "pay",
  "1472": "ed and ",
  "1473": "\u2019s\n",
  "1474": "ys",
  "1475": "los",
  "1476": "anim",
  "1477": "great ",
  "1478": "a little ",
  "1479": "uni",
  "1480": "Pres",
  "1481": "often ",
  "1482": " the same ",
  "1483": "next ",
  "1484": "out of ",
  "1485": "makes ",
  "1486": "ities",
  "1487": " my ",
  "1488": "dur",
  "1489": "uro",
  "1490": "in 19",
  "1491": "hour",
  "1492": "ying ",
  "1493": "looking ",
  "1494": "gam",
  "1495": "ts ",
  "1496": "allow",
  "1497": " thous",
  "1498": "uck",
  "1499": "bigg",
  "1500": "for a ",
  "1501": "road",
  "1502": "beh",
  "1503": "cover",
  "1504": "ern ",
  "1505": "came ",
  "1506": "ism",
  "1507": "But ",
  "1508": " that they ",
  "1509": "ory ",
  "1510": "two ",
  "1511": "doesn't ",
  "1512": "en, ",
  "1513": "already ",
  "1514": "exampl",
  "1515": "I think",
  "1516": "graph",
  "1517": "effect",
  "1518": "which is ",
  "1519": "eb",
  "1520": "publ",
  "1521": "red ",
  "1522": "wheth",
  "1523": "Democrat",
  "1524": "in\n",
  "1525": "mean",
  "1526": "ce ",
  "1527": "has been ",
  "1528": "oci",
  "1529": "give ",
  "1530": "I\u2019",
  "1531": "country",
  "1532": "spac",
  "1533": "pi",
  "1534": "report",
  "1535": ". These ",
  "1536": "adv",
  "1537": "phot",
  "1538": "most",
  "1539": "os ",
  "1540": "question",
  "1541": ". R",
  "1542": "he's ",
  "1543": "feel ",
  "1544": "ugh",
  "1545": "div",
  "1546": "clos",
  "1547": "dist",
  "1548": "appe",
  "1549": " would ",
  "1550": "like the ",
  "1551": "level",
  "1552": "perc",
  "1553": "pan",
  "1554": "ork ",
  "1555": "cri",
  "1556": "pris",
  "1557": "milit",
  "1558": "uch ",
  "1559": "fun",
  "1560": "less",
  "1561": ". That's ",
  "1562": "es in ",
  "1563": " do",
  "1564": "ble",
  "1565": "by",
  "1566": "e,\n",
  "1567": "countri",
  "1568": ". - ",
  "1569": "early ",
  "1570": "away ",
  "1571": ", it ",
  "1572": "[M",
  "1573": "% ",
  "1574": " through ",
  "1575": "requ",
  "1576": "ch ",
  "1577": "sec",
  "1578": "50",
  "1579": "election",
  "1580": "imin",
  "1581": "app",
  "1582": ". But the ",
  "1583": "chec",
  "1584": "usin",
  "1585": "national ",
  "1586": "net",
  "1587": ",000 ",
  "1588": "film",
  "1589": "is\n",
  "1590": ".\n- ",
  "1591": "kid",
  "1592": " too ",
  "1593": "a big",
  "1594": "ade ",
  "1595": "protect",
  "1596": "New Y",
  "1597": " there are ",
  "1598": "So ",
  "1599": "he was ",
  "1600": "Yeah",
  "1601": "aid ",
  "1602": "On",
  "1603": "underst",
  "1604": "ve",
  "1605": "control",
  "1606": "serv",
  "1607": "fort",
  "1608": "imp",
  "1609": ".\u201d \u201c",
  "1610": "progr",
  "1611": "2 ",
  "1612": "it, ",
  "1613": ". It was ",
  "1614": "help ",
  "1615": "[Music",
  "1616": "e se",
  "1617": "need ",
  "1618": "Com",
  "1619": "while ",
  "1620": "ollar",
  "1621": "list",
  "1622": "I c",
  "1623": "su",
  "1624": "he w",
  "1625": "sub",
  "1626": "point ",
  "1627": "sign",
  "1628": "stit",
  "1629": "issu",
  "1630": "may",
  "1631": "look",
  "1632": "Cl",
  "1633": "l ",
  "1634": "more than ",
  "1635": "becom",
  "1636": "good",
  "1637": "does ",
  "1638": "rough",
  "1639": "different",
  "1640": "aren",
  "1641": "oot",
  "1642": "making ",
  "1643": "hal",
  "1644": "against ",
  "1645": "s,\n",
  "1646": "gonna ",
  "1647": "doing ",
  "1648": "childr",
  "1649": " thos",
  "1650": "amer",
  "1651": "man ",
  "1652": "olv",
  "1653": "ott",
  "1654": "I s",
  "1655": "became ",
  "1656": "a d",
  "1657": "s. And ",
  "1658": "spe",
  "1659": "power ",
  "1660": "IS",
  "1661": "ecause ",
  "1662": "fig",
  "1663": " too",
  "1664": "start ",
  "1665": "hop",
  "1666": "compan",
  "1667": "enough",
  "1668": "Euro",
  "1669": "e the s",
  "1670": "exc",
  "1671": "e we ",
  "1672": "off ",
  "1673": ". And the ",
  "1674": "live ",
  "1675": "complet",
  "1676": "ly\n",
  "1677": "continu",
  "1678": "pit",
  "1679": "ress ",
  "1680": "<i>",
  "1681": "You ",
  "1682": ". What ",
  "1683": "iel",
  "1684": "ploy",
  "1685": "present",
  "1686": "found ",
  "1687": "was the ",
  "1688": ". In the ",
  "1689": " so ",
  "1690": "no",
  "1691": "ered ",
  "1692": "fight",
  "1693": "s were ",
  "1694": "has",
  "1695": "ederal ",
  "1696": "ized ",
  "1697": "ated",
  "1698": ". You ",
  "1699": "ied ",
  "1700": "it is ",
  "1701": "ask",
  "1702": "lab",
  "1703": " trans",
  "1704": "ucc",
  "1705": "Cong",
  "1706": "around the ",
  "1707": "e. The ",
  "1708": "ember ",
  "1709": "ond",
  "1710": "tal",
  "1711": "roc",
  "1712": "leas",
  "1713": "change ",
  "1714": " coun",
  "1715": "agre",
  "1716": "aid",
  "1717": "part of ",
  "1718": "aver",
  "1719": "hund",
  "1720": "fund",
  "1721": "like, ",
  "1722": "mom",
  "1723": "ought ",
  "1724": "head",
  "1725": "and that ",
  "1726": "s in the ",
  "1727": "direct",
  "1728": "miss",
  "1729": "an, ",
  "1730": "Sou",
  "1731": "women ",
  "1732": "side ",
  "1733": "dro",
  "1734": "pay ",
  "1735": "ing to",
  "1736": "e? ",
  "1737": " mon",
  "1738": "mar",
  "1739": "far",
  "1740": "may ",
  "1741": "looks ",
  "1742": "even",
  "1743": "e. And ",
  "1744": "bord",
  "1745": "ely",
  "1746": "ins",
  "1747": "selv",
  "1748": "ers, ",
  "1749": "foll",
  "1750": "money ",
  "1751": "onal",
  "1752": "ative ",
  "1753": "ning ",
  "1754": "whole ",
  "1755": "\u2019s",
  "1756": "qual",
  "1757": ". He ",
  "1758": "divid",
  "1759": "ere\u2019s ",
  "1760": "place ",
  "1761": "would be ",
  "1762": "e's ",
  "1763": "how m",
  "1764": "ention",
  "1765": "erg",
  "1766": " de",
  "1767": "dem",
  "1768": "find",
  "1769": "energ",
  "1770": "char",
  "1771": "particul",
  "1772": "few ",
  "1773": "ed to",
  "1774": "white ",
  "1775": "fri",
  "1776": "ateg",
  "1777": "ird ",
  "1778": "record",
  "1779": "rot",
  "1780": " thing ",
  "1781": " test",
  "1782": "long ",
  "1783": "fut",
  "1784": "decad",
  "1785": "ity of ",
  "1786": " tax",
  "1787": "room",
  "1788": "clear",
  "1789": "hap",
  "1790": "using ",
  "1791": " there\u2019s ",
  "1792": "omb",
  "1793": " tw",
  "1794": "big ",
  "1795": "caus",
  "1796": "a and ",
  "1797": ". We",
  "1798": "best ",
  "1799": "keep ",
  "1800": "pur",
  "1801": "e, and ",
  "1802": "uge ",
  "1803": "of that ",
  "1804": "ry ",
  "1805": ". I'",
  "1806": "ek",
  "1807": "watch",
  "1808": "break",
  "1809": "Americans ",
  "1810": " tell",
  "1811": "is, ",
  "1812": "ct",
  "1813": "s of the ",
  "1814": "gen",
  "1815": "ther ",
  "1816": "ball",
  "1817": "\u00a0 ",
  "1818": "ay, ",
  "1819": "regul",
  "1820": "30",
  "1821": "organ",
  "1822": "ouldn't ",
  "1823": " took ",
  "1824": "\n ",
  "1825": "ians ",
  "1826": "idenc",
  "1827": "deb",
  "1828": "him ",
  "1829": "defin",
  "1830": "ors",
  "1831": "time ",
  "1832": "\nt",
  "1833": "\nis ",
  "1834": "used to ",
  "1835": " then",
  "1836": "President ",
  "1837": " techn",
  "1838": "step",
  "1839": "least ",
  "1840": "s like ",
  "1841": "um ",
  "1842": "become ",
  "1843": "gun",
  "1844": "We ",
  "1845": "open",
  "1846": "lo",
  "1847": "rais",
  "1848": "when you ",
  "1849": ". G",
  "1850": " typ",
  "1851": "ired ",
  "1852": "foc",
  "1853": "important ",
  "1854": "had to ",
  "1855": "water ",
  "1856": "gets ",
  "1857": "employ",
  "1858": "krain",
  "1859": "100",
  "1860": "program",
  "1861": "ox ",
  "1862": "wal",
  "1863": "well ",
  "1864": " three ",
  "1865": "way to ",
  "1866": "ank ",
  "1867": "under ",
  "1868": "ants ",
  "1869": " by ",
  "1870": "6 ",
  "1871": "ing this ",
  "1872": "ump",
  "1873": "'s\n",
  "1874": "event",
  "1875": "ground",
  "1876": "inste",
  "1877": "\nfor ",
  "1878": "istr",
  "1879": "abil",
  "1880": "for s",
  "1881": "Ukrain",
  "1882": "10",
  "1883": "video ",
  "1884": "ore",
  "1885": " thousand",
  "1886": "e were ",
  "1887": ". J",
  "1888": "jo",
  "1889": "follow",
  "1890": "ures",
  "1891": "bit",
  "1892": "school",
  "1893": ". That\u2019s ",
  "1894": "ily ",
  "1895": "ourc",
  "1896": "cle",
  "1897": "isn't ",
  "1898": "are the ",
  "1899": "ali",
  "1900": ". So, ",
  "1901": "states ",
  "1902": "ed on ",
  "1903": "per ",
  "1904": "enn",
  "1905": "rest",
  "1906": "audi",
  "1907": "y that ",
  "1908": "piec",
  "1909": "ser",
  "1910": "Al",
  "1911": "line ",
  "1912": "s of",
  "1913": "ge",
  "1914": "ich",
  "1915": "60",
  "1916": "said",
  "1917": "pric",
  "1918": "imat",
  "1919": "ink ",
  "1920": "norm",
  "1921": "\nthis ",
  "1922": "ord ",
  "1923": "post",
  "1924": "fron",
  "1925": "on, ",
  "1926": "she ",
  "1927": "ally, ",
  "1928": "America",
  "1929": "quick",
  "1930": "posit",
  "1931": "experienc",
  "1932": "ull",
  "1933": "ale ",
  "1934": "be s",
  "1935": "dra",
  "1936": "ng",
  "1937": "\nthey ",
  "1938": "ian",
  "1939": "pac",
  "1940": "fric",
  "1941": "s. The ",
  "1942": "4 ",
  "1943": "you have ",
  "1944": "we c",
  "1945": "party ",
  "1946": "life ",
  "1947": "onald ",
  "1948": "Brit",
  "1949": "andid",
  "1950": "poll",
  "1951": "mus",
  "1952": "def",
  "1953": "influ",
  "1954": "food ",
  "1955": "studi",
  "1956": " bet",
  "1957": "er than ",
  "1958": "Oh",
  "1959": "\ns",
  "1960": "ogn",
  "1961": "major",
  "1962": "pot",
  "1963": "activ",
  "1964": "ers and ",
  "1965": " today",
  "1966": "attack",
  "1967": "human ",
  "1968": "releas",
  "1969": "doc",
  "1970": "n't",
  "1971": "idea ",
  "1972": "known ",
  "1973": "top",
  "1974": "insur",
  "1975": "redi",
  "1976": "ak ",
  "1977": "alleng",
  "1978": " there was ",
  "1979": "like this ",
  "1980": "consid",
  "1981": "story ",
  "1982": "Ear",
  "1983": "exact",
  "1984": "ike ",
  "1985": "aim",
  "1986": "five ",
  "1987": "ip ",
  "1988": "without ",
  "1989": "ah",
  "1990": "iat",
  "1991": "great",
  "1992": "econd ",
  "1993": "deal",
  "1994": "ograph",
  "1995": "ers\n",
  "1996": "ays ",
  "1997": "little ",
  "1998": "name ",
  "1999": "e we",
  "2000": "set ",
  "2001": "number of ",
  "2002": "conn",
  "2003": "ink",
  "2004": "you know, ",
  "2005": "whit",
  "2006": "'ll ",
  "2007": "ile ",
  "2008": "amoun",
  "2009": "ently ",
  "2010": "eith",
  "2011": "ics ",
  "2012": "look at ",
  "2013": "educ",
  "2014": "farm",
  "2015": "Gre",
  "2016": "Russian ",
  "2017": "important",
  "2018": "-- ",
  "2019": "wit",
  "2020": "seen ",
  "2021": "along",
  "2022": "believ",
  "2023": "I'm",
  "2024": " trying to ",
  "2025": "ending ",
  "2026": "comes ",
  "2027": " do ",
  "2028": "actu",
  "2029": ",000",
  "2030": "challeng",
  "2031": "eopl",
  "2032": "80",
  "2033": "conv",
  "2034": "is to ",
  "2035": "we have ",
  "2036": "Republicans ",
  "2037": "fect ",
  "2038": ", but",
  "2039": "viron",
  "2040": "we can ",
  "2041": "kind",
  "2042": "Ger",
  "2043": "raz",
  "2044": "ously ",
  "2045": "appear",
  "2046": "years",
  "2047": "ed in the ",
  "2048": "\nthat",
  "2049": "exist",
  "2050": "percent ",
  "2051": "ocial ",
  "2052": "out the ",
  "2053": "neigh",
  "2054": "% of ",
  "2055": "Republican ",
  "2056": "music",
  "2057": ". As ",
  "2058": "ror",
  "2059": "ical",
  "2060": "vacc",
  "2061": "hol",
  "2062": "val",
  "2063": "Con",
  "2064": "guy",
  "2065": "1 ",
  "2066": "you\u2019re ",
  "2067": "iter",
  "2068": "he s",
  "2069": "what's ",
  "2070": "on a ",
  "2071": ".  ",
  "2072": "ed with ",
  "2073": "hold",
  "2074": "ward",
  "2075": "left ",
  "2076": "support",
  "2077": "ounc",
  "2078": "coll",
  "2079": "federal ",
  "2080": "70",
  "2081": ",\nand ",
  "2082": "North ",
  "2083": " was",
  "2084": "are\n",
  "2085": "ple ",
  "2086": "I don't ",
  "2087": "play ",
  "2088": "Indi",
  "2089": "e their ",
  "2090": "sort of ",
  "2091": "nearly ",
  "2092": "industr",
  "2093": "police ",
  "2094": "ful ",
  "2095": ". If you ",
  "2096": "it to ",
  "2097": " trad",
  "2098": "I've ",
  "2099": " million ",
  "2100": "urn ",
  "2101": "mem",
  "2102": "That",
  "2103": "n\u2019t",
  "2104": "imil",
  "2105": "ates",
  "2106": "young",
  "2107": "show ",
  "2108": "ugg",
  "2109": "part of the ",
  "2110": "light ",
  "2111": "understand ",
  "2112": "expect",
  "2113": "equ",
  "2114": "midd",
  "2115": "90",
  "2116": "dam",
  "2117": "glob",
  "2118": "ument",
  "2119": ", to ",
  "2120": "promis",
  "2121": "thing",
  "2122": "ouse",
  "2123": "ner",
  "2124": ", \n",
  "2125": "net ",
  "2126": " they were ",
  "2127": "star",
  "2128": "ision",
  "2129": ". There's ",
  "2130": " cent",
  "2131": "sy",
  "2132": "che",
  "2133": "ends ",
  "2134": "person ",
  "2135": "ures ",
  "2136": "sing",
  "2137": "fur",
  "2138": "can be ",
  "2139": "cert",
  "2140": "augh",
  "2141": "sit",
  "2142": "--",
  "2143": "hundred",
  "2144": "reduc",
  "2145": "better ",
  "2146": "3 ",
  "2147": "What ",
  "2148": "pict",
  "2149": "ept ",
  "2150": "jour",
  "2151": "have the ",
  "2152": "protest",
  "2153": "fore",
  "2154": "environ",
  "2155": "immigr",
  "2156": "Europe",
  "2157": "Clint",
  "2158": "</i> <i>",
  "2159": "busin",
  "2160": "recogn",
  "2161": "anger",
  "2162": "learn",
  "2163": "World ",
  "2164": "let ",
  "2165": "said ",
  "2166": "noth",
  "2167": " tell ",
  "2168": "whether ",
  "2169": "t the ",
  "2170": "ator",
  "2171": "in 201",
  "2172": "paign",
  "2173": "prim",
  "2174": "ben",
  "2175": " they\u2019re ",
  "2176": "or the ",
  "2177": "imate ",
  "2178": "ebr",
  "2179": "understand",
  "2180": "ate",
  "2181": "basically ",
  "2182": "ly, ",
  "2183": "tak",
  "2184": "ism ",
  "2185": "charact",
  "2186": "s. But ",
  "2187": "goes ",
  "2188": "public ",
  "2189": "Joh",
  "2190": ". If",
  "2191": "ets ",
  "2192": "Car",
  "2193": "ad of ",
  "2194": "men ",
  "2195": "i-",
  "2196": "oil",
  "2197": "Ir",
  "2198": "sound",
  "2199": "across the ",
  "2200": "build ",
  "2201": "e thing",
  "2202": "have\n",
  "2203": "lip",
  "2204": "ense ",
  "2205": "ization",
  "2206": "orig",
  "2207": "fav",
  "2208": "action",
  "2209": "meas",
  "2210": "leep",
  "2211": "neighbor",
  "2212": "ingt",
  "2213": "a w",
  "2214": " talk",
  "2215": "\nin the ",
  "2216": "ones ",
  "2217": "bar",
  "2218": "e there ",
  "2219": "everything ",
  "2220": "[Music] ",
  "2221": "means ",
  "2222": "rol",
  "2223": "I me",
  "2224": "self ",
  "2225": "ai",
  "2226": "extrem",
  "2227": "at least ",
  "2228": "nec",
  "2229": "ock ",
  "2230": "ers are ",
  "2231": "ds ",
  "2232": "It's ",
  "2233": "They ",
  "2234": "auth",
  "2235": "espec",
  "2236": "can't ",
  "2237": "provid",
  "2238": "appro",
  "2239": "den",
  "2240": " togeth",
  "2241": "push",
  "2242": "particular",
  "2243": "lot",
  "2244": "didn\u2019t ",
  "2245": "simpl",
  "2246": "represent",
  "2247": "again ",
  "2248": "having ",
  "2249": "for w",
  "2250": "e these ",
  "2251": "it's not ",
  "2252": "jud",
  "2253": "rain ",
  "2254": "rad",
  "2255": "life",
  "2256": "eve ",
  "2257": "Afric",
  "2258": "vol",
  "2259": "edg",
  "2260": "ipp",
  "2261": "les ",
  "2262": "alth",
  "2263": "strong",
  "2264": "leav",
  "2265": ". And that ",
  "2266": "phys",
  "2267": "ber",
  "2268": "omin",
  "2269": "military ",
  "2270": "decid",
  "2271": "sever",
  "2272": "would",
  "2273": "saf",
  "2274": "study ",
  "2275": "descri",
  "2276": " that, ",
  "2277": "nuc",
  "2278": "ember",
  "2279": "e\u2019s ",
  "2280": "Donald ",
  "2281": "connect",
  "2282": "Col",
  "2283": "fall",
  "2284": "fiel",
  "2285": "ground ",
  "2286": "you've ",
  "2287": "beaut",
  "2288": "alled ",
  "2289": "health ",
  "2290": "ovi",
  "2291": "process",
  "2292": "dri",
  "2293": "is not ",
  "2294": "it\n",
  "2295": "a's ",
  "2296": "Or",
  "2297": "went ",
  "2298": "ation of ",
  "2299": "very",
  "2300": "where the ",
  "2301": "looked ",
  "2302": "love ",
  "2303": "uel",
  "2304": ", a ",
  "2305": "bir",
  "2306": "7 ",
  "2307": "Mus",
  "2308": "fic",
  "2309": "\u2019s the ",
  "2310": "make s",
  "2311": "in that ",
  "2312": "far ",
  "2313": "bit ",
  "2314": "apon",
  "2315": "New York ",
  "2316": "'d ",
  "2317": "io",
  "2318": " ther",
  "2319": "dest",
  "2320": "news ",
  "2321": "of those ",
  "2322": "e. But ",
  "2323": "my",
  "2324": "up to ",
  "2325": "non",
  "2326": "lot ",
  "2327": "of them",
  "2328": "it was",
  "2329": "ity, ",
  "2330": "also",
  "2331": "both ",
  "2332": "priv",
  "2333": "eful",
  "2334": "or s",
  "2335": "money",
  "2336": "origin",
  "2337": "e so ",
  "2338": "ured ",
  "2339": "20 ",
  "2340": "map",
  "2341": "e. H",
  "2342": "result",
  "2343": "one of ",
  "2344": " thre",
  "2345": " were ",
  "2346": "project",
  "2347": "ed for ",
  "2348": "idea",
  "2349": "Af",
  "2350": "away",
  "2351": "cult",
  "2352": "That ",
  "2353": "En",
  "2354": "deep",
  "2355": "ing t",
  "2356": "ual",
  "2357": "coming ",
  "2358": "on\u2019t ",
  "2359": "accoun",
  "2360": "been",
  "2361": "ary",
  "2362": "move ",
  "2363": "all of ",
  "2364": "met",
  "2365": "million",
  "2366": "C ",
  "2367": "bol",
  "2368": "prev",
  "2369": "or m",
  "2370": "feat",
  "2371": "In ",
  "2372": "right now",
  "2373": "'ll",
  "2374": "les",
  "2375": "asked ",
  "2376": "claim",
  "2377": "Hous",
  "2378": "when the ",
  "2379": "high ",
  "2380": "dict",
  "2381": "ed up ",
  "2382": "individ",
  "2383": "ven ",
  "2384": "scient",
  "2385": "y is ",
  "2386": ", you ",
  "2387": "8 ",
  "2388": "air ",
  "2389": "vari",
  "2390": "people\n",
  "2391": ": \"",
  "2392": "you\n",
  "2393": "oon",
  "2394": "bro",
  "2395": "driv",
  "2396": "crimin",
  "2397": "pract",
  "2398": "ven",
  "2399": "ministr",
  "2400": "ribut",
  "2401": "likel",
  "2402": "I\u2019m ",
  "2403": "done ",
  "2404": "product",
  "2405": "you\u2019",
  "2406": "form ",
  "2407": "mag",
  "2408": " the sam",
  "2409": "rap",
  "2410": "oper",
  "2411": "appl",
  "2412": "compet",
  "2413": "since ",
  "2414": "open ",
  "2415": "anything ",
  "2416": "charg",
  "2417": "strateg",
  "2418": "until ",
  "2419": "incredi",
  "2420": "fast",
  "2421": "past ",
  "2422": "urb",
  "2423": "an't ",
  "2424": "fail",
  "2425": "Ph",
  "2426": "e coun",
  "2427": "relat",
  "2428": "built ",
  "2429": "companies ",
  "2430": "americ",
  "2431": "death",
  "2432": "ize ",
  "2433": "what the ",
  "2434": "sport",
  "2435": "ing of ",
  "2436": "inst",
  "2437": "e they",
  "2438": "see",
  "2439": "against",
  "2440": " term",
  "2441": " talk ",
  "2442": "drug",
  "2443": "ity to ",
  "2444": "on\n",
  "2445": ", and",
  "2446": " tru",
  "2447": "Le",
  "2448": " this\n",
  "2449": ". Af",
  "2450": "ref",
  "2451": "working ",
  "2452": "care ",
  "2453": "angu",
  "2454": "what happen",
  "2455": " with the ",
  "2456": "mun",
  "2457": "reach",
  "2458": "ing it ",
  "2459": "edic",
  "2460": "of their ",
  "2461": "sometim",
  "2462": "going to be ",
  "2463": "relation",
  "2464": "a very ",
  "2465": "\" \"",
  "2466": "lov",
  "2467": "gott",
  "2468": "ask ",
  "2469": "bel",
  "2470": "set",
  "2471": "?\n",
  "2472": "question ",
  "2473": "ru",
  "2474": "information",
  "2475": "succ",
  "2476": "tor",
  "2477": "entire ",
  "2478": "Sh",
  "2479": "rup",
  "2480": "biggest ",
  "2481": "legal ",
  "2482": "e, the ",
  "2483": "for\n",
  "2484": "econd",
  "2485": "emp",
  "2486": "ivil",
  "2487": "go to ",
  "2488": "ict ",
  "2489": "plant",
  "2490": "ering ",
  "2491": "after the ",
  "2492": " dec",
  "2493": "children ",
  "2494": "But",
  "2495": "ark ",
  "2496": "Bl",
  "2497": "America ",
  "2498": "how to ",
  "2499": "hy",
  "2500": "opport",
  "2501": "opportun",
  "2502": "ativ",
  "2503": "rid",
  "2504": "s. H",
  "2505": "viv",
  "2506": "mis",
  "2507": ".</i> ",
  "2508": ". The s",
  "2509": "key ",
  "2510": "agg",
  "2511": "read ",
  "2512": "create ",
  "2513": "cal",
  "2514": "Well",
  "2515": " mak",
  "2516": ". [",
  "2517": "head ",
  "2518": "like a ",
  "2519": "ething ",
  "2520": "paint",
  "2521": "urd",
  "2522": "city ",
  "2523": "be the ",
  "2524": "ified ",
  "2525": "where",
  "2526": "ociet",
  "2527": "bi",
  "2528": "pri",
  "2529": "profess",
  "2530": "ional ",
  "2531": "TV",
  "2532": ". With",
  "2533": "South ",
  "2534": ". I'm ",
  "2535": "amp",
  "2536": "class",
  "2537": "population",
  "2538": "s \n",
  "2539": "six",
  "2540": "ney ",
  "2541": "s for ",
  "2542": "sl",
  "2543": "ospit",
  "2544": "vo",
  "2545": "mall",
  "2546": "hor",
  "2547": "... and ",
  "2548": "ity\n",
  "2549": "exactly ",
  "2550": "s have ",
  "2551": "foot",
  "2552": "night",
  "2553": "e would ",
  "2554": "age",
  "2555": "vert",
  "2556": "necess",
  "2557": "could",
  "2558": "United States ",
  "2559": "popular",
  "2560": "your b",
  "2561": "danger",
  "2562": "judg",
  "2563": "spir",
  "2564": "ic s",
  "2565": "including ",
  "2566": "ild ",
  "2567": "arch",
  "2568": " some ",
  "2569": "Sen",
  "2570": "ort ",
  "2571": "er the ",
  "2572": "ed by the ",
  "2573": "ult ",
  "2574": " work",
  "2575": "full",
  "2576": "siz",
  "2577": "Jap",
  "2578": "people are ",
  "2579": "cut",
  "2580": "back to ",
  "2581": "ion and ",
  "2582": "\nof the ",
  "2583": "itiz",
  "2584": "involv",
  "2585": "outh",
  "2586": ". For ",
  "2587": "stri",
  "2588": "candid",
  "2589": " technolog",
  "2590": "color",
  "2591": ", this ",
  "2592": " threat",
  "2593": "sex",
  "2594": ". There are ",
  "2595": "hood",
  "2596": "health c",
  "2597": "vel ",
  "2598": "once ",
  "2599": "support ",
  "2600": "reason ",
  "2601": "15",
  "2602": "comput",
  "2603": "ed\nto ",
  "2604": "especially ",
  "2605": "en't ",
  "2606": "sty",
  "2607": "home ",
  "2608": "ed it ",
  "2609": "vote ",
  "2610": "hard to ",
  "2611": "stuff",
  "2612": "assive ",
  "2613": " time",
  "2614": "has to ",
  "2615": "maybe ",
  "2616": " centur",
  "2617": "mp",
  "2618": "\u2026 ",
  "2619": ".</i> <i> ",
  "2620": "key",
  "2621": "ody ",
  "2622": "process ",
  "2623": "guy ",
  "2624": "but the ",
  "2625": "friend",
  "2626": "40",
  "2627": "China ",
  "2628": "like this",
  "2629": "energy ",
  "2630": "s, the ",
  "2631": " try to ",
  "2632": "you want to ",
  "2633": "fear",
  "2634": "compar",
  "2635": "bill",
  "2636": "with a ",
  "2637": "administr",
  "2638": "sen",
  "2639": ". To ",
  "2640": "and t",
  "2641": "Re",
  "2642": "everyone ",
  "2643": "black",
  "2644": "ience ",
  "2645": "solut",
  "2646": "cond",
  "2647": "ium",
  "2648": "ively ",
  "2649": "problem ",
  "2650": "199",
  "2651": " dis",
  "2652": "number ",
  "2653": "better",
  "2654": "slow",
  "2655": "small",
  "2656": "figure ",
  "2657": "Muslim",
  "2658": "fully ",
  "2659": "Mon",
  "2660": "potent",
  "2661": "\u201d\n",
  "2662": "had a ",
  "2663": "each",
  "2664": ". St",
  "2665": "jor ",
  "2666": "face ",
  "2667": "benef",
  "2668": "bad ",
  "2669": " betwe",
  "2670": "risk ",
  "2671": "e should ",
  "2672": "langu",
  "2673": ", which",
  "2674": "cros",
  "2675": " min",
  "2676": "building ",
  "2677": "ean",
  "2678": " could ",
  "2679": "stitution",
  "2680": "exic",
  "2681": "e thing ",
  "2682": "curr",
  "2683": "bly ",
  "2684": " themselv",
  "2685": "fel",
  "2686": "NA",
  "2687": " dollar",
  "2688": " show",
  "2689": "re\n",
  "2690": "mess",
  "2691": "next",
  "2692": "orld",
  "2693": "one s",
  "2694": "camer",
  "2695": "doesn\u2019t ",
  "2696": "late ",
  "2697": "family ",
  "2698": "ettl",
  "2699": "pet",
  "2700": "hard ",
  "2701": "ashingt",
  "2702": ":\n",
  "2703": " through the ",
  "2704": " that was ",
  "2705": "Ira",
  "2706": "we've ",
  "2707": "al w",
  "2708": "cost",
  "2709": "countries ",
  "2710": "We",
  "2711": "stra",
  "2712": "mot",
  "2713": "At",
  "2714": "a cou",
  "2715": "heav",
  "2716": "outsid",
  "2717": "uring ",
  "2718": "likely to ",
  "2719": "market",
  "2720": "eople ",
  "2721": "Chri",
  "2722": "e, but ",
  "2723": "began ",
  "2724": " million",
  "2725": " cl",
  "2726": "Earth",
  "2727": "ens ",
  "2728": "king about ",
  "2729": "a big ",
  "2730": "on this ",
  "2731": "email",
  "2732": "wa",
  "2733": "igg",
  "2734": "ime ",
  "2735": "If ",
  "2736": "four ",
  "2737": "har",
  "2738": "ought",
  "2739": "completely ",
  "2740": "hon",
  "2741": "\nthe s",
  "2742": "ers of ",
  "2743": "ines ",
  "2744": "repe",
  "2745": "ing for ",
  "2746": "It\u2019s ",
  "2747": "one\n",
  "2748": "policy ",
  "2749": "ed up",
  "2750": "shar",
  "2751": "e could ",
  "2752": "wrong",
  "2753": "There ",
  "2754": "same ",
  "2755": "e som",
  "2756": "ift",
  "2757": "cop",
  "2758": "uprem",
  "2759": "Iraq",
  "2760": "at this ",
  "2761": "row",
  "2762": "s on ",
  "2763": "s? ",
  "2764": "ed this ",
  "2765": "liter",
  "2766": "ater ",
  "2767": "higher ",
  "2768": "rop",
  "2769": "access",
  "2770": "behind ",
  "2771": "four",
  "2772": "202",
  "2773": "To ",
  "2774": "ational ",
  "2775": "strict",
  "2776": "round",
  "2777": "hair",
  "2778": "financ",
  "2779": "Arab",
  "2780": "places ",
  "2781": "if they ",
  "2782": "of the\n",
  "2783": "we are ",
  "2784": "called the ",
  "2785": "establ",
  "2786": "ol ",
  "2787": " their s",
  "2788": " thousands of ",
  "2789": "U.",
  "2790": "Kore",
  "2791": "half",
  "2792": "month",
  "2793": "pull",
  "2794": " times ",
  "2795": "water",
  "2796": "tra",
  "2797": "natural ",
  "2798": "environment",
  "2799": "lost ",
  "2800": "author",
  "2801": "urg",
  "2802": "usually ",
  "2803": "just a ",
  "2804": "diseas",
  "2805": "e them ",
  "2806": "ards ",
  "2807": "posed to ",
  "2808": "people to ",
  "2809": "iffer",
  "2810": "alifor",
  "2811": "aliforn",
  "2812": "occ",
  "2813": "Washingt",
  "2814": "evidenc",
  "2815": "FB",
  "2816": "ic\n",
  "2817": "perform",
  "2818": "oss",
  "2819": "e way",
  "2820": "obvi",
  "2821": "answ",
  "2822": "later ",
  "2823": "history",
  "2824": "irc",
  "2825": "spect",
  "2826": "ness",
  "2827": "fair",
  "2828": "percent",
  "2829": "what they ",
  "2830": "he\u2019s ",
  "2831": "behind",
  "2832": "I would ",
  "2833": "iful",
  "2834": "either ",
  "2835": "position",
  "2836": "ron",
  "2837": "official",
  "2838": "vict",
  "2839": "eiv",
  "2840": "ation, ",
  "2841": "ER",
  "2842": "Pal",
  "2843": " travel",
  "2844": "ingly ",
  "2845": "s\nof ",
  "2846": "beginn",
  "2847": "wid",
  "2848": "video",
  "2849": "New",
  "2850": "notic",
  "2851": "univers",
  "2852": "ital ",
  "2853": "hospit",
  "2854": "Sy",
  "2855": "a bunch",
  "2856": "12",
  "2857": "common",
  "2858": "fix",
  "2859": "a huge ",
  "2860": "convers",
  "2861": "Isra",
  "2862": "ford",
  "2863": "raf",
  "2864": "confl",
  "2865": "Mexic",
  "2866": "you to ",
  "2867": "I have ",
  "2868": ". Now",
  "2869": "ed \n",
  "2870": "ed with",
  "2871": "election ",
  "2872": "ich ",
  "2873": "conserv",
  "2874": "ry",
  "2875": "climate ",
  "2876": "ition ",
  "2877": "U.S",
  "2878": "es were ",
  "2879": " train",
  "2880": "Russia ",
  "2881": "like",
  "2882": "ship ",
  "2883": "arb",
  "2884": "omen ",
  "2885": "infr",
  "2886": "when they ",
  "2887": "fight ",
  "2888": "Fl",
  "2889": "a long",
  "2890": "stopp",
  "2891": "easi",
  "2892": ". I d",
  "2893": "on s",
  "2894": "jur",
  "2895": "model",
  "2896": "launch",
  "2897": "writ",
  "2898": "when it ",
  "2899": "at all",
  "2900": " today ",
  "2901": "isn\u2019t ",
  "2902": "let's ",
  "2903": "s a ",
  "2904": "a lot",
  "2905": "uck ",
  "2906": "responsi",
  "2907": ". And they ",
  "2908": "was a ",
  "2909": " but",
  "2910": "hit ",
  "2911": "argu",
  "2912": "out of the ",
  "2913": "chem",
  "2914": "will be ",
  "2915": "playing ",
  "2916": "in the\n",
  "2917": "ymbol",
  "2918": "gh",
  "2919": ". Som",
  "2920": "possible ",
  "2921": " they\n",
  "2922": "ing\nto ",
  "2923": "ies, ",
  "2924": "So",
  "2925": "listen",
  "2926": "book",
  "2927": "ensive ",
  "2928": "dou",
  "2929": "ive",
  "2930": "sw",
  "2931": "you think ",
  "2932": "engine",
  "2933": "ago",
  "2934": "who are ",
  "2935": "\u2013 ",
  "2936": "gave ",
  "2937": "order to ",
  "2938": "refer",
  "2939": "night ",
  "2940": "ing their ",
  "2941": "it would ",
  "2942": "comb",
  "2943": "why",
  "2944": "average ",
  "2945": "past",
  "2946": "concern",
  "2947": "es,",
  "2948": "bott",
  "2949": ". I w",
  "2950": "fill",
  "2951": "stay ",
  "2952": "roduc",
  "2953": "ty",
  "2954": "want ",
  "2955": "ed to the ",
  "2956": "living ",
  "2957": "mach",
  "2958": "mostly ",
  "2959": "dollar",
  "2960": "you'r",
  "2961": "ream",
  "2962": "rest ",
  "2963": "ies of ",
  "2964": " cont",
  "2965": "had been ",
  "2966": "you have to ",
  "2967": "This is ",
  "2968": "flo",
  "2969": "relationship",
  "2970": "scen",
  "2971": "roll",
  "2972": "conf",
  "2973": "be\n",
  "2974": "Ac",
  "2975": "ers. ",
  "2976": "ing them",
  "2977": "essent",
  "2978": "body",
  "2979": " countr",
  "2980": "word",
  "2981": "a ma",
  "2982": "ush ",
  "2983": "epend",
  "2984": "check",
  "2985": "elebr",
  "2986": "such ",
  "2987": "growing ",
  "2988": "ince ",
  "2989": "cient",
  "2990": "del",
  "2991": "data ",
  "2992": "Cour",
  "2993": ") ",
  "2994": "ing to the ",
  "2995": "ez",
  "2996": "empt",
  "2997": "law ",
  "2998": "ap ",
  "2999": "11",
  "3000": "quite ",
  "3001": "food",
  "3002": "enough ",
  "3003": "see the ",
  "3004": "fish",
  "3005": "not the ",
  "3006": "close ",
  "3007": " tow",
  "3008": "ject ",
  "3009": "like\n",
  "3010": "imilar",
  "3011": "ator ",
  "3012": "s, but ",
  "3013": "ral ",
  "3014": "run ",
  "3015": " differ",
  "3016": "extr",
  "3017": "o-",
  "3018": "disc",
  "3019": "make it ",
  "3020": "dig",
  "3021": " month",
  "3022": "someone ",
  "3023": "Ge",
  "3024": "region",
  "3025": "ung",
  "3026": "e things ",
  "3027": "require",
  "3028": "rate ",
  "3029": "gett",
  "3030": ", it's ",
  "3031": "ific ",
  "3032": " some",
  "3033": "human",
  "3034": "bomb",
  "3035": "Can",
  "3036": "urity ",
  "3037": "could be ",
  "3038": "intell",
  "3039": "De",
  "3040": "mil",
  "3041": "some of the ",
  "3042": "Californ",
  "3043": " that is ",
  "3044": "abort",
  "3045": "ers to ",
  "3046": ", I ",
  "3047": "beautiful",
  "3048": "uggest",
  "3049": "game ",
  "3050": "internet ",
  "3051": "not just ",
  "3052": "stream",
  "3053": "pain",
  "3054": "campaign",
  "3055": "fire",
  "3056": "up the ",
  "3057": "uniqu",
  "3058": "it and ",
  "3059": "e cl",
  "3060": "Congress ",
  "3061": "10 ",
  "3062": "ages ",
  "3063": "of them ",
  "3064": "s that are ",
  "3065": "plan ",
  "3066": "else",
  "3067": "lex",
  "3068": "our s",
  "3069": "ward ",
  "3070": "valu",
  "3071": "draw",
  "3072": "establish",
  "3073": "ious",
  "3074": "\u2019 ",
  "3075": "risk",
  "3076": "happen ",
  "3077": "onc",
  "3078": "got to ",
  "3079": "ise ",
  "3080": "Syri",
  "3081": "information ",
  "3082": "ee ",
  "3083": "als",
  "3084": "sound ",
  "3085": "sequ",
  "3086": "recogniz",
  "3087": "emocrac",
  "3088": "house ",
  "3089": "a little bit ",
  "3090": "only",
  "3091": "resident",
  "3092": "record ",
  "3093": "ate\n",
  "3094": " their\n",
  "3095": "epis",
  "3096": "00 ",
  "3097": "tru",
  "3098": "nal",
  "3099": "China",
  "3100": "ore ",
  "3101": "on c",
  "3102": "opt",
  "3103": "es. And ",
  "3104": "omen",
  "3105": "ago ",
  "3106": "yeah",
  "3107": "ount",
  "3108": "helped ",
  "3109": "short",
  "3110": " bec",
  "3111": "house",
  "3112": "really",
  "3113": "rang",
  "3114": ". By ",
  "3115": "Mc",
  "3116": "itting ",
  "3117": "from a ",
  "3118": "ery ",
  "3119": "io ",
  "3120": "9 ",
  "3121": "favor",
  "3122": "street",
  "3123": "American",
  "3124": "experim",
  "3125": "War ",
  "3126": "war ",
  "3127": "aur",
  "3128": "sell",
  "3129": "choic",
  "3130": "more s",
  "3131": "' ",
  "3132": ", so ",
  "3133": "into a ",
  "3134": ". Some ",
  "3135": "He",
  "3136": "ations",
  "3137": " taking ",
  "3138": " tot",
  "3139": "Sovi",
  "3140": " takes ",
  "3141": "ustri",
  "3142": "ater",
  "3143": "photograph",
  "3144": "sleep",
  "3145": "reli",
  "3146": "pect",
  "3147": "ation\n",
  "3148": "kids ",
  "3149": "Put",
  "3150": "Ok",
  "3151": "yet",
  "3152": "explain",
  "3153": "patter",
  "3154": " because ",
  "3155": " they\u2019",
  "3156": ". Because ",
  "3157": "ff ",
  "3158": " their c",
  "3159": "rock",
  "3160": "Pl",
  "3161": "mos",
  "3162": "trying to ",
  "3163": "roy",
  "3164": "ility ",
  "3165": "women",
  "3166": "independ",
  "3167": "Qu",
  "3168": "mult",
  "3169": "age of ",
  "3170": "flow",
  "3171": "local ",
  "3172": "dog",
  "3173": "ies and ",
  "3174": "cy",
  "3175": " will ",
  "3176": "ing is ",
  "3177": "something",
  "3178": " ton",
  "3179": "chanc",
  "3180": "e their",
  "3181": "When ",
  "3182": "likely ",
  "3183": "colleg",
  "3184": "cris",
  "3185": "possible",
  "3186": " did",
  "3187": "quickly ",
  "3188": "ipl",
  "3189": "during the ",
  "3190": "perat",
  "3191": "road ",
  "3192": "mean ",
  "3193": "ient ",
  "3194": "es in the ",
  "3195": "episod",
  "3196": ". I think ",
  "3197": "week",
  "3198": "ution ",
  "3199": "e way ",
  "3200": "its",
  "3201": "ert ",
  "3202": "anal",
  "3203": "ram",
  "3204": "War",
  "3205": "deter",
  "3206": "a good ",
  "3207": "ek ",
  "3208": "ory",
  "3209": " team",
  "3210": "ed on",
  "3211": "introduc",
  "3212": "gas ",
  "3213": "area ",
  "3214": "s\nto ",
  "3215": "capt",
  "3216": "because of ",
  "3217": "as\n",
  "3218": " bu",
  "3219": ": \u201c",
  "3220": "it the ",
  "3221": "eventually ",
  "3222": "memb",
  "3223": "te",
  "3224": "definit",
  "3225": "prec",
  "3226": "grad",
  "3227": "s\nand ",
  "3228": "ent to ",
  "3229": "ird",
  "3230": ", which ",
  "3231": "middle ",
  "3232": "ort of ",
  "3233": "amount of ",
  "3234": "history ",
  "3235": "arily ",
  "3236": "found that ",
  "3237": "init",
  "3238": "198",
  "3239": "mid",
  "3240": ". There\u2019s ",
  "3241": "e\nof ",
  "3242": "16",
  "3243": "of cour",
  "3244": "remember ",
  "3245": "last",
  "3246": " mov",
  "3247": "remain",
  "3248": "hold ",
  "3249": "ally the ",
  "3250": "announc",
  "3251": " there is ",
  "3252": "infect",
  "3253": "across ",
  "3254": "meet",
  "3255": "of t",
  "3256": "Obamac",
  "3257": "fuel",
  "3258": "check ",
  "3259": "pap",
  "3260": "heard ",
  "3261": "ren",
  "3262": "longer ",
  "3263": "until",
  "3264": " to t",
  "3265": "object",
  "3266": "Engl",
  "3267": "book ",
  "3268": "cen",
  "3269": ". So the ",
  "3270": "years, ",
  "3271": "?\u201d ",
  "3272": "ior",
  "3273": "Ex",
  "3274": "ivers",
  "3275": "ength",
  "3276": "s they ",
  "3277": "chart",
  "3278": "foreign ",
  "3279": "if the ",
  "3280": "we\u2019re ",
  "3281": "phone ",
  "3282": "might be ",
  "3283": "main",
  "3284": "itional ",
  "3285": ". I me",
  "3286": ". And then ",
  "3287": " system",
  "3288": "lam",
  "3289": " des",
  "3290": "oil ",
  "3291": "\ntheir ",
  "3292": "Dr",
  "3293": "view ",
  "3294": "Canad",
  "3295": "in the US",
  "3296": "works ",
  "3297": "what you ",
  "3298": "u.",
  "3299": "fol",
  "3300": ", or ",
  "3301": "in an ",
  "3302": "answer",
  "3303": "ham",
  "3304": "it's",
  "3305": "consum",
  "3306": "has a ",
  "3307": "a sing",
  "3308": "Inter",
  "3309": "es, and ",
  "3310": "aking ",
  "3311": "artment ",
  "3312": "ke ",
  "3313": "basic",
  "3314": "word ",
  "3315": ", we ",
  "3316": " will",
  "3317": "detail",
  "3318": "paid ",
  "3319": ". You can ",
  "3320": "journal",
  "3321": "complic",
  "3322": "if we ",
  "3323": " though ",
  "3324": "Pr",
  "3325": " these s",
  "3326": "s with ",
  "3327": "uses ",
  "3328": "as an ",
  "3329": "Franc",
  "3330": "our c",
  "3331": "neighborhood",
  "3332": "one, ",
  "3333": "Palest",
  "3334": "hear ",
  "3335": "gone ",
  "3336": "separ",
  "3337": "amaz",
  "3338": "ies that ",
  "3339": "lots of ",
  "3340": "peac",
  "3341": "civil",
  "3342": "anted to ",
  "3343": "er-",
  "3344": "anti-",
  "3345": "th centur",
  "3346": "West",
  "3347": "partic",
  "3348": "matter ",
  "3349": "because the ",
  "3350": "unn",
  "3351": "global ",
  "3352": "I can ",
  "3353": "voters ",
  "3354": "something that ",
  "3355": "proper",
  "3356": "song",
  "3357": "eat",
  "3358": "nothing ",
  "3359": "call ",
  "3360": "ots ",
  "3361": "running ",
  "3362": "named ",
  "3363": "remov",
  "3364": "replac",
  "3365": "led ",
  "3366": "wind",
  "3367": "pack",
  "3368": " becaus",
  "3369": "ir ",
  "3370": "or of ",
  "3371": "Hol",
  "3372": "common ",
  "3373": "apt",
  "3374": "Dep",
  "3375": "look at the ",
  "3376": "about\n",
  "3377": "stop ",
  "3378": "in their ",
  "3379": "a bunch of ",
  "3380": "going",
  "3381": "artist",
  "3382": "more\n",
  "3383": "Part",
  "3384": "gain",
  "3385": "crit",
  "3386": "non-",
  "3387": "lay",
  "3388": " there were ",
  "3389": "for c",
  "3390": "direc",
  "3391": "ion of the ",
  "3392": "rout",
  "3393": "Pol",
  "3394": "zer",
  "3395": ". We're ",
  "3396": "several ",
  "3397": "millions of ",
  "3398": "omat",
  "3399": "propos",
  "3400": " they've ",
  "3401": "plann",
  "3402": "Georg",
  "3403": "north",
  "3404": "story",
  "3405": "decision",
  "3406": " sup",
  "3407": "er than",
  "3408": "electric",
  "3409": "Tim",
  "3410": "main ",
  "3411": "rob",
  "3412": "196",
  "3413": "get the ",
  "3414": "Donald Trump",
  "3415": "cut ",
  "3416": "y, and ",
  "3417": "How",
  "3418": "design ",
  "3419": "anks ",
  "3420": "rights ",
  "3421": "media ",
  "3422": "off the ",
  "3423": ". One ",
  "3424": " so",
  "3425": "know that ",
  "3426": "and that's ",
  "3427": "publish",
  "3428": "vaccin",
  "3429": "?\" ",
  "3430": "it's a ",
  "3431": "gir",
  "3432": "ation and ",
  "3433": "economy ",
  "3434": "ear ",
  "3435": "infra",
  "3436": "infrastruct",
  "3437": "ean ",
  "3438": "itself",
  "3439": "border ",
  "3440": "uary ",
  "3441": "ments ",
  "3442": "ing them ",
  "3443": "ings",
  "3444": "dram",
  "3445": "respond",
  "3446": "e. So ",
  "3447": " did ",
  "3448": "e wor",
  "3449": "music ",
  "3450": "control ",
  "3451": "brought ",
  "3452": "ed as ",
  "3453": " them to ",
  "3454": "entire",
  "3455": ". They're ",
  "3456": "because they ",
  "3457": "here, ",
  "3458": "immed",
  "3459": "company ",
  "3460": "say, ",
  "3461": " thought ",
  "3462": "what we ",
  "3463": "effort",
  "3464": "rand",
  "3465": "ISIS",
  "3466": "web",
  "3467": "insid",
  "3468": "instead of ",
  "3469": "pick",
  "3470": "s. M",
  "3471": "togeth",
  "3472": "where they ",
  "3473": "ness ",
  "3474": " turns ",
  "3475": "paign ",
  "3476": "ements ",
  "3477": "really\n",
  "3478": "e the\n",
  "3479": "plat",
  "3480": "sav",
  "3481": "right? ",
  "3482": ". Y",
  "3483": "mitt",
  "3484": "iqu",
  "3485": "s. A",
  "3486": "stuff ",
  "3487": "left",
  "3488": "al, ",
  "3489": " treat",
  "3490": "is that",
  "3491": "at a ",
  "3492": "tod",
  "3493": " minut",
  "3494": " compan",
  "3495": "affect",
  "3496": "nuclear",
  "3497": "intellig",
  "3498": "Medic",
  "3499": "Fox ",
  "3500": "Chinese ",
  "3501": "oto ",
  "3502": "; ",
  "3503": "arrat",
  "3504": "buy ",
  "3505": "e that the ",
  "3506": "investigation ",
  "3507": "artic",
  "3508": "ency ",
  "3509": "idence ",
  "3510": "so much",
  "3511": "know, ",
  "3512": "to\n",
  "3513": "practic",
  "3514": ". Which ",
  "3515": " me ",
  "3516": "West ",
  "3517": "space ",
  "3518": ". In 201",
  "3519": "merc",
  "3520": "surpris",
  "3521": "White ",
  "3522": ". Or",
  "3523": "print",
  "3524": "Suprem",
  "3525": "Obama ",
  "3526": "anyone ",
  "3527": "er is ",
  "3528": "t and ",
  "3529": "deli",
  "3530": "top ",
  "3531": "emerg",
  "3532": " sp",
  "3533": "Asi",
  "3534": "economic ",
  "3535": "resourc",
  "3536": "dead",
  "3537": "stay",
  "3538": "be a ",
  "3539": "ify ",
  "3540": " bas",
  "3541": "us to ",
  "3542": "you could ",
  "3543": "community ",
  "3544": "New York",
  "3545": "United States",
  "3546": "sect",
  "3547": "fram",
  "3548": "you were ",
  "3549": "lower ",
  "3550": "he c",
  "3551": "former ",
  "3552": "ifi",
  "3553": "of a ",
  "3554": "cost ",
  "3555": "197",
  "3556": " tar",
  "3557": "shap",
  "3558": "aw ",
  "3559": "ufact",
  "3560": "mic",
  "3561": "health care ",
  "3562": "manag",
  "3563": "gi",
  "3564": "s. Th",
  "3565": "itor",
  "3566": "cul",
  "3567": "British ",
  "3568": "s is ",
  "3569": "half ",
  "3570": "figure out ",
  "3571": "30 ",
  "3572": "absolut",
  "3573": "changed ",
  "3574": "fem",
  "3575": "e will",
  "3576": "movi",
  "3577": "floo",
  "3578": "typ",
  "3579": "emiss",
  "3580": "s it ",
  "3581": "pleas",
  "3582": "tries ",
  "3583": "fast ",
  "3584": "legis",
  "3585": "I mean ",
  "3586": "techn",
  "3587": "one. ",
  "3588": "atch ",
  "3589": "in the 19",
  "3590": "committ",
  "3591": "earli",
  "3592": "shows ",
  "3593": ". My ",
  "3594": "roop",
  "3595": "finally ",
  "3596": "minut",
  "3597": "a tr",
  "3598": "realiz",
  "3599": "scre",
  "3600": "For ",
  "3601": "s. They ",
  "3602": ". And it ",
  "3603": "istic",
  "3604": "e] ",
  "3605": "House ",
  "3606": "recent ",
  "3607": "during ",
  "3608": "emperat",
  "3609": "turn",
  "3610": "aren't ",
  "3611": "gra",
  "3612": "further ",
  "3613": "cities ",
  "3614": "ane ",
  "3615": "on and ",
  "3616": "ly the ",
  "3617": "25",
  "3618": " school",
  "3619": "success",
  "3620": "student",
  "3621": "ertain ",
  "3622": "before the ",
  "3623": "else ",
  "3624": "ffic",
  "3625": "aliz",
  "3626": "stag",
  "3627": "ong K",
  "3628": "virus ",
  "3629": "about this ",
  "3630": "Japan",
  "3631": ". What",
  "3632": "huge ",
  "3633": "Bar",
  "3634": "invent",
  "3635": "perfect",
  "3636": "\u00a0\u00a0 ",
  "3637": "moment",
  "3638": "ure that ",
  "3639": "for exampl",
  "3640": "e: ",
  "3641": "a few",
  "3642": "limit",
  "3643": "predict",
  "3644": "lear ",
  "3645": "iny ",
  "3646": "prog",
  "3647": "what it ",
  "3648": "ficult",
  "3649": "ed out ",
  "3650": "wast",
  "3651": "South",
  "3652": "eing ",
  "3653": "cord",
  "3654": "Ap",
  "3655": "attention",
  "3656": "es,\n",
  "3657": "oud ",
  "3658": "Now",
  "3659": ". After ",
  "3660": "sent",
  "3661": "ed. The ",
  "3662": " mil",
  "3663": "largest ",
  "3664": ", in ",
  "3665": "later",
  "3666": "hundreds of ",
  "3667": "ID",
  "3668": "press ",
  "3669": "industri",
  "3670": "earth",
  "3671": "sens",
  "3672": "That's ",
  "3673": "impact ",
  "3674": "mind",
  "3675": "nic",
  "3676": "rich",
  "3677": "cool",
  "3678": "income ",
  "3679": "hur",
  "3680": "people, ",
  "3681": "edd",
  "3682": "es. The ",
  "3683": ". Al",
  "3684": "voting ",
  "3685": " two",
  "3686": "just the ",
  "3687": "do it ",
  "3688": "influenc",
  "3689": "future ",
  "3690": "photo ",
  "3691": "a new ",
  "3692": "our b",
  "3693": "sometimes ",
  "3694": "se, ",
  "3695": "John",
  "3696": "s to",
  "3697": "ed into ",
  "3698": "behav",
  "3699": "mater",
  "3700": "impact",
  "3701": "killed ",
  "3702": "woman ",
  "3703": " dr",
  "3704": "we s",
  "3705": " time, ",
  "3706": " that we ",
  "3707": "oud",
  "3708": "% of the ",
  "3709": "atter",
  "3710": "Supreme ",
  "3711": "ran",
  "3712": "Fac",
  "3713": "ive\n",
  "3714": "doing",
  "3715": "Oh, ",
  "3716": "complex",
  "3717": " see ",
  "3718": "in 200",
  "3719": "all these ",
  "3720": "return",
  "3721": "eks ",
  "3722": "s. So ",
  "3723": "receiv",
  "3724": "planet",
  "3725": "the ",
  "3726": "how the ",
  "3727": "room ",
  "3728": "sum",
  "3729": "gap",
  "3730": "relig",
  "3731": "Tu",
  "3732": "when we ",
  "3733": "hand ",
  "3734": "popular ",
  "3735": "board",
  "3736": "DC",
  "3737": "improv",
  "3738": "laugh",
  "3739": "Gu",
  "3740": "elev",
  "3741": "approach",
  "3742": "advant",
  "3743": "olution",
  "3744": "gend",
  "3745": "voic",
  "3746": "ton",
  "3747": "rom",
  "3748": "ible ",
  "3749": "quot",
  "3750": ". All",
  "3751": "e that's ",
  "3752": "amin",
  "3753": "Black ",
  "3754": "organiz",
  "3755": "large ",
  "3756": "e. M",
  "3757": "becam",
  "3758": "kept ",
  "3759": "s... ",
  "3760": "ultimat",
  "3761": "be able to ",
  "3762": "en\u2019t ",
  "3763": "\nwith ",
  "3764": "a bit ",
  "3765": "els ",
  "3766": "in the world",
  "3767": "eah ",
  "3768": "box",
  "3769": "and to ",
  "3770": "illi",
  "3771": "from\n",
  "3772": " that you ",
  "3773": "free ",
  "3774": "ones",
  "3775": "original ",
  "3776": "started to ",
  "3777": ". I think",
  "3778": "one of the most ",
  "3779": "Soviet ",
  "3780": ": The ",
  "3781": "group ",
  "3782": " wor",
  "3783": "wanted to ",
  "3784": " told ",
  "3785": "antly ",
  "3786": "fact ",
  "3787": "remember",
  "3788": "industry ",
  "3789": "cheap",
  "3790": "or\n",
  "3791": ". Becaus",
  "3792": "servic",
  "3793": "ra ",
  "3794": "Hill",
  "3795": "[Music]",
  "3796": " terror",
  "3797": " track",
  "3798": "business",
  "3799": "eat ",
  "3800": "path",
  "3801": "areas ",
  "3802": "on't",
  "3803": "researchers ",
  "3804": "as well",
  "3805": "uss",
  "3806": " might ",
  "3807": "a few ",
  "3808": ". Most ",
  "3809": "Dav",
  "3810": "ety ",
  "3811": "Carol",
  "3812": "ivil ",
  "3813": "bring ",
  "3814": ". K",
  "3815": "rote ",
  "3816": "in term",
  "3817": "accur",
  "3818": "tax",
  "3819": "moment ",
  "3820": "le\n",
  "3821": "like s",
  "3822": "a ser",
  "3823": "possibl",
  "3824": "group of ",
  "3825": "particularly ",
  "3826": "Univers",
  "3827": "flect",
  "3828": "bey",
  "3829": "const",
  "3830": "chart ",
  "3831": "17",
  "3832": "pand",
  "3833": "international ",
  "3834": "avo",
  "3835": "alb",
  "3836": "ure of ",
  "3837": "down the ",
  "3838": "Hong K",
  "3839": "ats ",
  "3840": "e system",
  "3841": "e than",
  "3842": "ple of ",
  "3843": ". Which",
  "3844": ". This is the ",
  "3845": "emot",
  "3846": "describ",
  "3847": "but they ",
  "3848": "based ",
  "3849": "felt ",
  "3850": "among",
  "3851": "sal",
  "3852": "presidential ",
  "3853": "elin",
  "3854": "John ",
  "3855": "s from ",
  "3856": "et's ",
  "3857": "inside ",
  "3858": "videos ",
  "3859": "combin",
  "3860": "lives ",
  "3861": "er in ",
  "3862": "believe ",
  "3863": " their b",
  "3864": "firm",
  "3865": "approv",
  "3866": "difficult",
  "3867": "literally ",
  "3868": "market ",
  "3869": "are not ",
  "3870": "Par",
  "3871": "Russia",
  "3872": "nur",
  "3873": "of\nthe ",
  "3874": "job ",
  "3875": "wealth",
  "3876": "ur ",
  "3877": "wall",
  "3878": "powerful",
  "3879": "National ",
  "3880": "50 ",
  "3881": "offer",
  "3882": ". Inste",
  "3883": "image ",
  "3884": "or, ",
  "3885": "like to ",
  "3886": " should ",
  "3887": "ope",
  "3888": "area",
  "3889": ". I\u2019",
  "3890": ". And that's ",
  "3891": "violenc",
  "3892": "for this ",
  "3893": "ina",
  "3894": "if you're ",
  "3895": " something ",
  "3896": "certain",
  "3897": "shot ",
  "3898": "men",
  "3899": "athlet",
  "3900": "For",
  "3901": "e.\" ",
  "3902": "birth",
  "3903": "Sand",
  "3904": "ed an ",
  "3905": "\nwas ",
  "3906": "another",
  "3907": "option",
  "3908": "get to ",
  "3909": "controll",
  "3910": "at the tim",
  "3911": " commun",
  "3912": " talk about ",
  "3913": "an to ",
  "3914": " top",
  "3915": "e those ",
  "3916": "sych",
  "3917": "Man",
  "3918": "ouch",
  "3919": "enough to ",
  "3920": "racial ",
  "3921": "leave ",
  "3922": "differenc",
  "3923": "discrimin",
  "3924": "is this ",
  "3925": "suggest",
  "3926": ",\nthe ",
  "3927": "insurance ",
  "3928": "e. L",
  "3929": "elf",
  "3930": "alter",
  "3931": "Cent",
  "3932": "make a ",
  "3933": "ental ",
  "3934": "es a ",
  "3935": "e for ",
  "3936": " these c",
  "3937": "Palestin",
  "3938": "account",
  "3939": "movement ",
  "3940": "now, ",
  "3941": "As",
  "3942": "protect ",
  "3943": "a is ",
  "3944": " that this ",
  "3945": "just\n",
  "3946": "Christ",
  "3947": "rough ",
  "3948": "social ",
  "3949": "trans",
  "3950": "aybe ",
  "3951": " thank ",
  "3952": "s. L",
  "3953": "e will ",
  "3954": "young ",
  "3955": " their m",
  "3956": "focus ",
  "3957": "as we ",
  "3958": "mosph",
  "3959": "vill",
  "3960": "film ",
  "3961": "ying",
  "3962": "meth",
  "3963": "contain",
  "3964": "ions",
  "3965": "ers in ",
  "3966": "ies\n",
  "3967": "Supreme Cour",
  "3968": "weapon",
  "3969": "Afgh",
  "3970": "\u2014 and ",
  "3971": "e\nth",
  "3972": "alk",
  "3973": "mail",
  "3974": "zz",
  "3975": "child ",
  "3976": "oot ",
  "3977": " we're ",
  "3978": "ate the ",
  "3979": "ply ",
  "3980": "system ",
  "3981": "lot of ",
  "3982": "famous ",
  "3983": "less than ",
  "3984": "lines ",
  "3985": "determin",
  "3986": "imagin",
  "3987": "what\u2019s ",
  "3988": "**",
  "3989": "an and ",
  "3990": "Do ",
  "3991": "Gener",
  "3992": "ing in the ",
  "3993": "ument ",
  "3994": "stories ",
  "3995": "field",
  "3996": "atmosph",
  "3997": "Ro",
  "3998": " taken ",
  "3999": "not to ",
  "4000": "fact that ",
  "4001": "how much",
  "4002": "children",
  "4003": "rail",
  "4004": "ed out",
  "4005": "agu",
  "4006": "up with ",
  "4007": " teach",
  "4008": "fli",
  "4009": "actually",
  "4010": "aren\u2019t ",
  "4011": "yes ",
  "4012": "arrest",
  "4013": "enforc",
  "4014": "should be ",
  "4015": "later, ",
  "4016": "people in ",
  "4017": "up and ",
  "4018": "students ",
  "4019": "and this ",
  "4020": "democrac",
  "4021": "ia, ",
  "4022": " does",
  "4023": "ity and ",
  "4024": "alway",
  "4025": "associ",
  "4026": "log",
  "4027": "orid",
  "4028": "migr",
  "4029": "achi",
  "4030": "sam",
  "4031": "too ",
  "4032": "centur",
  "4033": "Clinton",
  "4034": ".\u00a0 ",
  "4035": "insuranc",
  "4036": "seas",
  "4037": "I just ",
  "4038": "perfect ",
  "4039": " di",
  "4040": "lad",
  "4041": "report ",
  "4042": "rid ",
  "4043": "wasn't ",
  "4044": "trad",
  "4045": "surviv",
  "4046": "bur",
  "4047": "runn",
  "4048": "ed from ",
  "4049": "many",
  "4050": "Fren",
  "4051": "World War ",
  "4052": "more and ",
  "4053": "nob",
  "4054": "uly ",
  "4055": "must ",
  "4056": "financial ",
  "4057": "afford",
  "4058": "Cub",
  "4059": "oph",
  "4060": "els",
  "4061": "I did",
  "4062": "attempt",
  "4063": "ins ",
  "4064": "boo",
  "4065": "eter",
  "4066": "front ",
  "4067": "erc",
  "4068": "pattern",
  "4069": "win ",
  "4070": "block",
  "4071": "worth",
  "4072": " tran",
  "4073": "end of ",
  "4074": " say",
  "4075": " between ",
  "4076": " beli",
  "4077": "recomm",
  "4078": "against the ",
  "4079": "lyn",
  "4080": ". Yeah",
  "4081": "ators ",
  "4082": "bal",
  "4083": "e... ",
  "4084": "freed",
  "4085": "broad",
  "4086": "matter",
  "4087": "a new",
  "4088": "sess",
  "4089": "ather ",
  "4090": "economic",
  "4091": "ing with ",
  "4092": "yet ",
  "4093": "in my ",
  "4094": " tool",
  "4095": "s this ",
  "4096": "gas",
  "4097": "scientists ",
  "4098": "so many ",
  "4099": "Am",
  "4100": "difference ",
  "4101": "immediat",
  "4102": "iting ",
  "4103": "rim",
  "4104": "do it",
  "4105": "attack ",
  "4106": "much more ",
  "4107": "general ",
  "4108": "emic",
  "4109": "humans ",
  "4110": "happened ",
  "4111": "azz",
  "4112": "Democrats ",
  "4113": "Iran",
  "4114": " third ",
  "4115": "cong",
  "4116": "exec",
  "4117": "es \n",
  "4118": "revol",
  "4119": "bad",
  "4120": " contr",
  "4121": "pag",
  "4122": "for watch",
  "4123": "interview",
  "4124": "e some ",
  "4125": "future",
  "4126": "Br",
  "4127": "movie ",
  "4128": "prevent",
  "4129": "in t",
  "4130": "14",
  "4131": "  ",
  "4132": "oog",
  "4133": "you don't ",
  "4134": "Jan",
  "4135": "aught ",
  "4136": "as they ",
  "4137": "19 ",
  "4138": "Faceb",
  "4139": "\u00a0\u00a0",
  "4140": "advanc",
  "4141": " call",
  "4142": "celebr",
  "4143": "private ",
  "4144": "e.\u201d ",
  "4145": "others ",
  "4146": ". The c",
  "4147": "whatever ",
  "4148": "low ",
  "4149": " top ",
  "4150": " war",
  "4151": "giving ",
  "4152": "from s",
  "4153": "collect",
  "4154": " way",
  "4155": "look like ",
  "4156": " together",
  "4157": "incredibly ",
  "4158": "scar",
  "4159": "green ",
  "4160": "okay ",
  "4161": "European ",
  "4162": "ath ",
  "4163": "full ",
  "4164": "mo",
  "4165": "population ",
  "4166": "e the w",
  "4167": "been\n",
  "4168": "ony ",
  "4169": "Islam",
  "4170": "So, ",
  "4171": "you think",
  "4172": "One ",
  "4173": "advert",
  "4174": "everybody ",
  "4175": "ilitary ",
  "4176": "rath",
  "4177": " br",
  "4178": "city",
  "4179": "contribut",
  "4180": "em ",
  "4181": "ibl",
  "4182": "normal ",
  "4183": " thought",
  "4184": "ue to ",
  "4185": "uggl",
  "4186": "interest ",
  "4187": "a larg",
  "4188": "urr",
  "4189": " down",
  "4190": " can",
  "4191": "avail",
  "4192": "Great ",
  "4193": "e\nto ",
  "4194": "break ",
  "4195": "tion ",
  "4196": "kinds of ",
  "4197": "is an ",
  "4198": "He ",
  "4199": "one that ",
  "4200": "individual ",
  "4201": "supposed to ",
  "4202": "start to ",
  "4203": " to a ",
  "4204": ". How",
  "4205": "ber ",
  "4206": "actual ",
  "4207": "his",
  "4208": "park",
  "4209": "an-",
  "4210": "interesting ",
  "4211": "Tex",
  "4212": "s to the ",
  "4213": "es for ",
  "4214": "ely\n",
  "4215": " tend",
  "4216": "medic",
  "4217": "single ",
  "4218": "quart",
  "4219": "given ",
  "4220": "definitely ",
  "4221": "flood",
  "4222": ". And this ",
  "4223": "ion, ",
  "4224": "minim",
  "4225": "because it ",
  "4226": " car",
  "4227": "what\n",
  "4228": "ordin",
  "4229": "girl",
  "4230": "party",
  "4231": "comfort",
  "4232": "door",
  "4233": "fat",
  "4234": "s to be ",
  "4235": "scri",
  "4236": "cross",
  "4237": " back",
  "4238": "democrat",
  "4239": "II",
  "4240": " to this ",
  "4241": "host",
  "4242": "bud",
  "4243": "natur",
  "4244": ", he ",
  "4245": "You can ",
  "4246": "prepar",
  "4247": "do you ",
  "4248": "we were ",
  "4249": "unemploy",
  "4250": "Jer",
  "4251": "Tur",
  "4252": "families ",
  "4253": "plast",
  "4254": ", \"",
  "4255": "hot",
  "4256": ". I was ",
  "4257": "your s",
  "4258": "knowl",
  "4259": "immun",
  "4260": "investigation",
  "4261": "udden",
  "4262": "spread",
  "4263": "societ",
  "4264": " they'r",
  "4265": "ating",
  "4266": ". But it ",
  "4267": "Chic",
  "4268": "stand ",
  "4269": "not a ",
  "4270": ". Lik",
  "4271": "carb",
  "4272": "it in ",
  "4273": "asking ",
  "4274": "iou",
  "4275": "people s",
  "4276": "e.\n",
  "4277": " the same tim",
  "4278": "New York C",
  "4279": "gives ",
  "4280": "should",
  "4281": "aint",
  "4282": ". She ",
  "4283": "incent",
  "4284": "people were ",
  "4285": "Saudi",
  "4286": "genet",
  "4287": "er for ",
  "4288": "send ",
  "4289": "insp",
  "4290": ". Like ",
  "4291": "dramat",
  "4292": "advertis",
  "4293": " most ",
  "4294": "Congres",
  "4295": " thousand ",
  "4296": "all of the ",
  "4297": "astr",
  "4298": "orm",
  "4299": "vent",
  "4300": "can\u2019t ",
  "4301": "but it ",
  "4302": "? And ",
  "4303": "Jam",
  "4304": "make the ",
  "4305": "repres",
  "4306": "clus",
  "4307": "special ",
  "4308": "similar",
  "4309": "e\nand ",
  "4310": "mix",
  "4311": "office ",
  "4312": "arant",
  "4313": "anymor",
  "4314": "ustom",
  "4315": ", it\u2019s ",
  "4316": "I want to ",
  "4317": "hood ",
  "4318": "Phil",
  "4319": "not\n",
  "4320": "n\u2019t\n",
  "4321": "?\n- ",
  "4322": "ittl",
  "4323": "Vox",
  "4324": "tw",
  "4325": "dropp",
  "4326": "decis",
  "4327": "ed it",
  "4328": "burn",
  "4329": "extremely ",
  "4330": "psych",
  "4331": "ability to ",
  "4332": "you would ",
  "4333": " that it ",
  "4334": "e was",
  "4335": "hours ",
  "4336": "walk ",
  "4337": "effic",
  "4338": "inking ",
  "4339": "factor",
  "4340": "between the ",
  "4341": "United Stat",
  "4342": "uation",
  "4343": "easy to ",
  "4344": "state",
  "4345": " mus",
  "4346": "how much ",
  "4347": "13",
  "4348": "e. \u201c",
  "4349": "ed in",
  "4350": "prison",
  "4351": "ping ",
  "4352": "ather",
  "4353": "promot",
  "4354": "oppos",
  "4355": "ies to ",
  "4356": "how do ",
  "4357": "ably ",
  "4358": "domin",
  "4359": "small ",
  "4360": "case ",
  "4361": "eum",
  "4362": "says ",
  "4363": ". Tod",
  "4364": "goal ",
  "4365": "spr",
  "4366": "about it",
  "4367": "manufact",
  "4368": "days ",
  "4369": "blood ",
  "4370": "players ",
  "4371": "kn",
  "4372": "a lot of",
  "4373": "egr",
  "4374": "test",
  "4375": "ing these ",
  "4376": "high-",
  "4377": "leader",
  "4378": "final ",
  "4379": "photo",
  "4380": "accord",
  "4381": "between",
  "4382": "people have ",
  "4383": "count",
  "4384": " made ",
  "4385": "UK",
  "4386": "Florid",
  "4387": ". By the ",
  "4388": "areas",
  "4389": "Democratic ",
  "4390": "best",
  "4391": "YouTu",
  "4392": "are you ",
  "4393": "stitut",
  "4394": "sequenc",
  "4395": "orn",
  "4396": "Oly",
  "4397": "a major",
  "4398": "egg",
  "4399": "spend ",
  "4400": "speak",
  "4401": "etter ",
  "4402": "walk",
  "4403": "internet",
  "4404": "who's ",
  "4405": "My ",
  "4406": " cour",
  "4407": "audienc",
  "4408": "s. \u201c",
  "4409": "lost",
  "4410": "2000",
  "4411": "ended ",
  "4412": "e think ",
  "4413": "end of the ",
  "4414": "reve",
  "4415": ". But they ",
  "4416": "as well ",
  "4417": "incom",
  "4418": ", there's ",
  "4419": "itions ",
  "4420": "100 ",
  "4421": "tar",
  "4422": "reflect",
  "4423": "ling ",
  "4424": "issue ",
  "4425": "parent",
  "4426": "comes to ",
  "4427": " to get ",
  "4428": "an un",
  "4429": "alth ",
  "4430": " called ",
  "4431": "e work",
  "4432": "ister ",
  "4433": "effect ",
  "4434": "neg",
  "4435": "field ",
  "4436": "earn",
  "4437": "They",
  "4438": "\nthese ",
  "4439": "Char",
  "4440": "moving ",
  "4441": "ense",
  "4442": "in and ",
  "4443": "level ",
  "4444": ". Ok",
  "4445": "dangerous ",
  "4446": "accept",
  "4447": "Rob",
  "4448": "pace ",
  "4449": ". People ",
  "4450": "share ",
  "4451": "Washington ",
  "4452": "s\nthat ",
  "4453": "!\" ",
  "4454": "Braz",
  "4455": ". <i> ",
  "4456": "dom",
  "4457": "clear ",
  "4458": ", that's ",
  "4459": "witch",
  "4460": "questions ",
  "4461": "answer ",
  "4462": "alleg",
  "4463": ".com",
  "4464": "powerful ",
  "4465": "e. A",
  "4466": "fighting ",
  "4467": "e. It ",
  "4468": "held ",
  "4469": "so much ",
  "4470": "mall ",
  "4471": "divers",
  "4472": "ption",
  "4473": "s with",
  "4474": "Har",
  "4475": "murd",
  "4476": "yeah ",
  "4477": "Pro",
  "4478": "used",
  "4479": "business ",
  "4480": ", you know, ",
  "4481": "right to ",
  "4482": "ball ",
  "4483": "front",
  "4484": "Ma",
  "4485": "cat",
  "4486": "highest ",
  "4487": "up in ",
  "4488": " contin",
  "4489": "\non ",
  "4490": "haven't ",
  "4491": "native ",
  "4492": "averag",
  "4493": " territ",
  "4494": "ond ",
  "4495": "SA",
  "4496": "prior",
  "4497": "grand",
  "4498": " C",
  "4499": "knew ",
  "4500": "zon",
  "4501": ". They were ",
  "4502": "Appl",
  "4503": "No",
  "4504": "Bern",
  "4505": "animals ",
  "4506": ". Then ",
  "4507": "some s",
  "4508": "Dis",
  "4509": "guys ",
  "4510": "communic",
  "4511": "action ",
  "4512": "Be",
  "4513": "fle",
  "4514": "massive ",
  "4515": "or and ",
  "4516": "iod ",
  "4517": "ically",
  "4518": "al and ",
  "4519": "gotten ",
  "4520": " billion",
  "4521": "ford ",
  "4522": "commerc",
  "4523": "Jew",
  "4524": "Israel",
  "4525": "seg",
  "4526": "fire ",
  "4527": "don't",
  "4528": "foss",
  "4529": "putting ",
  "4530": "you see ",
  "4531": "what is ",
  "4532": "pic",
  "4533": "Olymp",
  "4534": "e with the ",
  "4535": "negot",
  "4536": "East ",
  "4537": "means",
  "4538": "you\u2019ve ",
  "4539": "\u2019d ",
  "4540": "Clinton ",
  "4541": "craz",
  "4542": "e. E",
  "4543": "ers of the ",
  "4544": "no longer ",
  "4545": "East",
  "4546": "happening ",
  "4547": "period ",
  "4548": " met",
  "4549": "how we ",
  "4550": "particip",
  "4551": ". Even ",
  "4552": "elt",
  "4553": "ney",
  "4554": "specific",
  "4555": "lyw",
  "4556": "a certain ",
  "4557": "warm",
  "4558": "how it ",
  "4559": "blu",
  "4560": "race ",
  "4561": "surv",
  "4562": "built",
  "4563": "damag",
  "4564": "ed at ",
  "4565": "under the ",
  "4566": "expos",
  "4567": "guess ",
  "4568": "ervic",
  "4569": "e\nthe ",
  "4570": "in P",
  "4571": ". In fact",
  "4572": "Why ",
  "4573": "nes",
  "4574": "wav",
  "4575": ". V",
  "4576": "or c",
  "4577": "execut",
  "4578": "I\u2019m",
  "4579": "major ",
  "4580": "a single ",
  "4581": "had the ",
  "4582": "nuclear ",
  "4583": "\nthe c",
  "4584": "es like ",
  "4585": "research ",
  "4586": "ing. And ",
  "4587": "pip",
  "4588": "forest",
  "4589": "animal",
  "4590": "billion",
  "4591": "politicians ",
  "4592": "acy",
  "4593": "or a ",
  "4594": "encour",
  "4595": "ump ",
  "4596": "saying ",
  "4597": "term",
  "4598": "look at",
  "4599": "mass ",
  "4600": "alg",
  "4601": "has\n",
  "4602": "when I ",
  "4603": "iple ",
  "4604": "!\u201d ",
  "4605": "on the s",
  "4606": "influence ",
  "4607": "\nas ",
  "4608": "experience ",
  "4609": "circ",
  "4610": "ran ",
  "4611": "1, ",
  "4612": ". Un",
  "4613": "ing the s",
  "4614": " tre",
  "4615": "designed to ",
  "4616": "Just",
  "4617": "experiment",
  "4618": "expand",
  "4619": "\nthey",
  "4620": "shot",
  "4621": "194",
  "4622": "attr",
  "4623": "access to ",
  "4624": "medical ",
  "4625": "certain ",
  "4626": "e in the ",
  "4627": "easy ",
  "4628": "expens",
  "4629": "sourc",
  "4630": "so that ",
  "4631": "Mic",
  "4632": ": the ",
  "4633": " took",
  "4634": "states",
  "4635": "citiz",
  "4636": " weapon",
  "4637": "Ass",
  "4638": "were\n",
  "4639": "peak",
  "4640": "S ",
  "4641": "crim",
  "4642": "Well, ",
  "4643": "street ",
  "4644": "frequ",
  "4645": "s and",
  "4646": " cas",
  "4647": "somebody ",
  "4648": "so the ",
  "4649": "pass ",
  "4650": "MA",
  "4651": "you can see ",
  "4652": "movement",
  "4653": "so they ",
  "4654": "consider",
  "4655": "expensive ",
  "4656": "consist",
  "4657": "icon",
  "4658": "previ",
  "4659": " troop",
  "4660": "actually\n",
  "4661": "ing\nthe ",
  "4662": " these\n",
  "4663": "uh",
  "4664": "acy ",
  "4665": "conduc",
  "4666": "ing \n",
  "4667": "CO",
  "4668": "on of ",
  "4669": "\nthan ",
  "4670": "strong ",
  "4671": "born ",
  "4672": "each other",
  "4673": "all over the ",
  "4674": "narrat",
  "4675": "aster",
  "4676": "us, ",
  "4677": "sent ",
  "4678": "thing that ",
  "4679": "in terms of ",
  "4680": "North",
  "4681": "itch",
  "4682": "rif",
  "4683": "bann",
  "4684": "driver",
  "4685": "helps ",
  "4686": "knowledg",
  "4687": "gun ",
  "4688": "out\n",
  "4689": "percent of ",
  "4690": "anist",
  "4691": "on that ",
  "4692": "personal ",
  "4693": "onlin",
  "4694": "card",
  "4695": "in\nthe ",
  "4696": "\nare ",
  "4697": "ef ",
  "4698": "ried ",
  "4699": "quality ",
  "4700": "princ",
  "4701": "like that",
  "4702": "wear",
  "4703": " try",
  "4704": "ner ",
  "4705": "struction",
  "4706": "here in ",
  "4707": "poor",
  "4708": "doz",
  "4709": "settl",
  "4710": "it can ",
  "4711": "agenc",
  "4712": "s that",
  "4713": "UN",
  "4714": "e. \"",
  "4715": ".\" The ",
  "4716": "saw ",
  "4717": "ction",
  "4718": ",\nbut ",
  "4719": " days ",
  "4720": "any other ",
  "4721": "iet",
  "4722": "udd",
  "4723": "onstr",
  "4724": "ed their ",
  "4725": "ag ",
  "4726": " way ",
  "4727": "mir",
  "4728": "Tal",
  "4729": "oes ",
  "4730": "looking at ",
  "4731": "partis",
  "4732": "'re\n",
  "4733": "memor",
  "4734": ".\u201d The ",
  "4735": ". But that ",
  "4736": "result ",
  "4737": "ampaign",
  "4738": "a really ",
  "4739": "omet",
  "4740": "e of a ",
  "4741": "condition",
  "4742": "do that",
  "4743": " different ",
  "4744": "knew",
  "4745": "6, ",
  "4746": "physical ",
  "4747": "ait",
  "4748": "signific",
  "4749": "opol",
  "4750": "order ",
  "4751": "you are ",
  "4752": "raft",
  "4753": "aries ",
  "4754": "prices ",
  "4755": "vul",
  "4756": "conflict",
  "4757": "we don't ",
  "4758": "ers have ",
  "4759": "U.S. ",
  "4760": "ju",
  "4761": "cover ",
  "4762": "Just ",
  "4763": "hug",
  "4764": "s. It ",
  "4765": " turn ",
  "4766": "economy",
  "4767": "ology ",
  "4768": ". And so ",
  "4769": "stanc",
  "4770": "ital",
  "4771": "famili",
  "4772": "material",
  "4773": "s: ",
  "4774": "most of the ",
  "4775": "ives ",
  "4776": "ually",
  "4777": "od ",
  "4778": "document",
  "4779": " someth",
  "4780": "in, ",
  "4781": "Republican",
  "4782": "it's the ",
  "4783": " then the ",
  "4784": "seem ",
  "4785": "e sup",
  "4786": "label",
  "4787": "attle ",
  "4788": "le-",
  "4789": "administration ",
  "4790": "victim",
  "4791": "order",
  "4792": "needed to ",
  "4793": "number",
  "4794": "ed them ",
  "4795": "production",
  "4796": "lar",
  "4797": "guid",
  "4798": "winn",
  "4799": "force ",
  "4800": "\nthe w",
  "4801": "grew ",
  "4802": "ility",
  "4803": "bri",
  "4804": " more than ",
  "4805": "asc",
  "4806": "ure, ",
  "4807": "Pet",
  "4808": "ately ",
  "4809": "squ",
  "4810": ". Those ",
  "4811": "elm",
  "4812": "organization",
  "4813": "No ",
  "4814": "get a ",
  "4815": "strength",
  "4816": "fewer ",
  "4817": "urch",
  "4818": "right now ",
  "4819": "all s",
  "4820": "name is ",
  "4821": "active ",
  "4822": "around the world",
  "4823": "saw",
  "4824": "een ",
  "4825": "on their ",
  "4826": "add ",
  "4827": "hic",
  "4828": "and then",
  "4829": "s.\n",
  "4830": " col",
  "4831": "with\n",
  "4832": "weet",
  "4833": "security ",
  "4834": "pen",
  "4835": "east",
  "4836": "1.",
  "4837": "brok",
  "4838": "ffer",
  "4839": "peri",
  "4840": "forward",
  "4841": " tried to ",
  "4842": "strict ",
  "4843": "ate, ",
  "4844": "express",
  "4845": "gen ",
  "4846": "maint",
  "4847": "raw",
  "4848": "you might ",
  "4849": "year, ",
  "4850": "enter",
  "4851": "if w",
  "4852": "spent ",
  "4853": "pover",
  "4854": "liber",
  "4855": "south",
  "4856": "network",
  "4857": " means ",
  "4858": "kick",
  "4859": "Ama",
  "4860": "made it ",
  "4861": "languag",
  "4862": "and it ",
  "4863": "lant",
  "4864": "itive ",
  "4865": "evidence ",
  "4866": "ed\nthe ",
  "4867": "Indian ",
  "4868": "s. \"",
  "4869": "album",
  "4870": "ial\n",
  "4871": "in: ",
  "4872": "ated\n",
  "4873": "come to ",
  "4874": "e that\n",
  "4875": "o and ",
  "4876": "dark",
  "4877": "4, ",
  "4878": "even though",
  "4879": "ver the ",
  "4880": "and, ",
  "4881": "who was ",
  "4882": "reform",
  "4883": "2, ",
  "4884": "es. But ",
  "4885": "avir",
  "4886": "ological ",
  "4887": "a couple of ",
  "4888": "wild",
  "4889": "itself ",
  "4890": "\nfrom ",
  "4891": "jump",
  "4892": "Sc",
  "4893": "drive ",
  "4894": "rich ",
  "4895": "among ",
  "4896": "ric ",
  "4897": "cle ",
  "4898": "parents ",
  "4899": "a mon",
  "4900": "with m",
  "4901": "eight ",
  "4902": "lan",
  "4903": "feel like ",
  "4904": "are th",
  "4905": "ext ",
  "4906": "buy",
  "4907": "writt",
  "4908": "wasn\u2019t ",
  "4909": "national",
  "4910": "images ",
  "4911": " day",
  "4912": "Kle",
  "4913": "you'll ",
  "4914": "rest of the ",
  "4915": "whose ",
  "4916": "mill",
  "4917": "apart",
  "4918": "err",
  "4919": " to take ",
  "4920": "like that ",
  "4921": "prevent ",
  "4922": "Se",
  "4923": "onavir",
  "4924": "spread ",
  "4925": "kil",
  "4926": "gn",
  "4927": "cou",
  "4928": "ertain",
  "4929": "of thos",
  "4930": "heavy ",
  "4931": "ruc",
  "4932": "imilar ",
  "4933": "ash ",
  "4934": "match",
  "4935": "ourselv",
  "4936": "conservative ",
  "4937": "ues",
  "4938": " that's the ",
  "4939": "created ",
  "4940": "in M",
  "4941": "data",
  "4942": "alf",
  "4943": " money ",
  "4944": "at\n",
  "4945": " they are ",
  "4946": "TO",
  "4947": "Afghanist",
  "4948": "river",
  "4949": "I\u2019ve ",
  "4950": ". U",
  "4951": "she",
  "4952": ". After",
  "4953": ", too",
  "4954": "soon ",
  "4955": ". Just ",
  "4956": "ive, ",
  "4957": "es on ",
  "4958": "did not ",
  "4959": "ured",
  "4960": "in these ",
  "4961": "virt",
  "4962": "like c",
  "4963": "in 199",
  "4964": "storm",
  "4965": ", and the ",
  "4966": " that would ",
  "4967": " ten",
  "4968": "sha",
  "4969": "shift",
  "4970": "ely, ",
  "4971": "as much ",
  "4972": " together ",
  "4973": "vulner",
  "4974": "Not ",
  "4975": "People ",
  "4976": "occup",
  "4977": " theor",
  "4978": "Midd",
  "4979": "imul",
  "4980": " def",
  "4981": "N: ",
  "4982": "akist",
  "4983": "heart ",
  "4984": "was\n",
  "4985": "it? ",
  "4986": "known",
  "4987": "El",
  "4988": "Tod",
  "4989": "goal",
  "4990": "enem",
  "4991": "dy",
  "4992": "ousand",
  "4993": ". An ",
  "4994": ". At ",
  "4995": "ier",
  "4996": "chair",
  "4997": "corrup",
  "4998": "inj",
  "4999": "super ",
  "5000": "of that",
  "5001": "happened",
  "5002": "choose ",
  "5003": "ion\n",
  "5004": "going to",
  "5005": "forward ",
  "5006": "Europ",
  "5007": "housing ",
  "5008": "discover",
  "5009": "2020",
  "5010": "we could ",
  "5011": "parts of the ",
  "5012": "heat ",
  "5013": "use the ",
  "5014": "based on ",
  "5015": "fortun",
  "5016": "wif",
  "5017": "parties ",
  "5018": "ers were ",
  "5019": "whether",
  "5020": "first tim",
  "5021": "Saudi ",
  "5022": "Iran ",
  "5023": "peach",
  "5024": "Brazil",
  "5025": "zra ",
  "5026": "ina ",
  "5027": ". All ",
  "5028": ". Com",
  "5029": "bring",
  "5030": "aud",
  "5031": "193",
  "5032": "wond",
  "5033": "weak",
  "5034": "I am ",
  "5035": ". This is a ",
  "5036": "15 ",
  "5037": "what was ",
  "5038": "poor ",
  "5039": "ah ",
  "5040": "recently ",
  "5041": "eph",
  "5042": ". Why ",
  "5043": "artists ",
  "5044": "building",
  "5045": " design",
  "5046": "often",
  "5047": "movies ",
  "5048": "harm",
  "5049": "not be ",
  "5050": "effective ",
  "5051": "more c",
  "5052": " turns out",
  "5053": "solar ",
  "5054": "people and ",
  "5055": "al-",
  "5056": "aps",
  "5057": "yell",
  "5058": "board ",
  "5059": "abilit",
  "5060": "Donald Trump ",
  "5061": "quit",
  "5062": "hat",
  "5063": "Right",
  "5064": "ooting ",
  "5065": "itari",
  "5066": "fa",
  "5067": "Twit",
  "5068": "ary\n",
  "5069": "\u2019t\n",
  "5070": "Trump\u2019s ",
  "5071": "e. O",
  "5072": "pil",
  "5073": "ther",
  "5074": "s. O",
  "5075": "I had ",
  "5076": "got the ",
  "5077": "cast",
  "5078": "isol",
  "5079": "oom",
  "5080": "worth ",
  "5081": "irst",
  "5082": "it is",
  "5083": "x ",
  "5084": "directly ",
  "5085": "virus",
  "5086": "ed by",
  "5087": "more likely to ",
  "5088": "gender ",
  "5089": "mental ",
  "5090": "focused ",
  "5091": "Ad",
  "5092": "you can",
  "5093": "seems ",
  "5094": "back to the ",
  "5095": " for ",
  "5096": "struggl",
  "5097": "destroy",
  "5098": "color ",
  "5099": "couldn't ",
  "5100": ", this is ",
  "5101": "groups ",
  "5102": "laws ",
  "5103": "idea of ",
  "5104": "not only ",
  "5105": "absolutely ",
  "5106": "Sp",
  "5107": "starts ",
  "5108": "eles",
  "5109": "is it ",
  "5110": "court",
  "5111": "going on ",
  "5112": "purpos",
  "5113": "freedom",
  "5114": "ion is ",
  "5115": "President",
  "5116": "\"\n",
  "5117": "a\u2019s ",
  "5118": "Applaus",
  "5119": "pun",
  "5120": "jazz",
  "5121": "Fox New",
  "5122": ". Well",
  "5123": "family",
  "5124": "hib",
  "5125": "essentially ",
  "5126": "ing on ",
  "5127": "expert",
  "5128": " co",
  "5129": "Vox ",
  "5130": "refug",
  "5131": "State ",
  "5132": "pose ",
  "5133": "presidenc",
  "5134": " degre",
  "5135": "studies ",
  "5136": "pressure ",
  "5137": "on my ",
  "5138": "distribut",
  "5139": "project ",
  "5140": "Hollyw",
  "5141": "changes ",
  "5142": "planet ",
  "5143": "solv",
  "5144": "hundred ",
  "5145": "paying ",
  "5146": ". While ",
  "5147": "1960",
  "5148": "beat ",
  "5149": "weird ",
  "5150": "fossil ",
  "5151": "breath",
  "5152": "beat",
  "5153": "passeng",
  "5154": "Germany ",
  "5155": " country ",
  "5156": "have an ",
  "5157": "crow",
  "5158": "e say",
  "5159": " time to ",
  "5160": "voter ",
  "5161": "justic",
  "5162": "British",
  "5163": "s.\" ",
  "5164": "[Applaus",
  "5165": "i'",
  "5166": "That\u2019s ",
  "5167": "zra Kle",
  "5168": "unique ",
  "5169": "on m",
  "5170": "never",
  "5171": "otal ",
  "5172": "reach ",
  "5173": "These ",
  "5174": "restrict",
  "5175": "\nto",
  "5176": "ed his ",
  "5177": " both",
  "5178": "join",
  "5179": "side",
  "5180": "le, ",
  "5181": "es? ",
  "5182": "quickly",
  "5183": "y-",
  "5184": "entir",
  "5185": "urv",
  "5186": "violence ",
  "5187": "sat",
  "5188": "hope ",
  "5189": "joy",
  "5190": "I could ",
  "5191": " bre",
  "5192": "lose ",
  "5193": "pick ",
  "5194": "yourself",
  "5195": " team ",
  "5196": "in our ",
  "5197": "cell",
  "5198": "achiev",
  "5199": "excit",
  "5200": "looks like ",
  "5201": "price ",
  "5202": "current ",
  "5203": " there's a ",
  "5204": " themselves ",
  "5205": "in his ",
  "5206": "we\n",
  "5207": "Jack",
  "5208": "company",
  "5209": "your d",
  "5210": ". Be",
  "5211": "diff",
  "5212": "up, ",
  "5213": "in order to ",
  "5214": "George ",
  "5215": "acces",
  "5216": "becomes ",
  "5217": "healthy ",
  "5218": "people w",
  "5219": "know the ",
  "5220": "hit",
  "5221": "cientists ",
  "5222": "Ab",
  "5223": "not going to ",
  "5224": ". When you ",
  "5225": "counter",
  "5226": ". Not ",
  "5227": "D ",
  "5228": "lack ",
  "5229": "way that ",
  "5230": "know what ",
  "5231": " drug",
  "5232": "vehic",
  "5233": "ing that",
  "5234": "if it ",
  "5235": "Supreme Court ",
  "5236": "\u2014 the ",
  "5237": " than the ",
  "5238": "farmers ",
  "5239": "kind of",
  "5240": "Putin ",
  "5241": "ing, and ",
  "5242": "everything",
  "5243": "In the ",
  "5244": "straight ",
  "5245": "symbol",
  "5246": "er of the ",
  "5247": "ublic ",
  "5248": "ed that",
  "5249": "mount",
  "5250": "since the ",
  "5251": "weren't ",
  "5252": "hope",
  "5253": "pul",
  "5254": "overwh",
  "5255": "happens ",
  "5256": "brut",
  "5257": "It was ",
  "5258": "Stre",
  "5259": " thank",
  "5260": "e they're ",
  "5261": "climate chang",
  "5262": " companies ",
  "5263": "meant ",
  "5264": "home",
  "5265": "African ",
  "5266": "sing ",
  "5267": ". They\u2019re ",
  "5268": "certainly ",
  "5269": "deal ",
  "5270": "begin",
  "5271": "perspect",
  "5272": "might",
  "5273": "abor",
  "5274": "RA",
  "5275": "Mor",
  "5276": " sid",
  "5277": ", where ",
  "5278": "voc",
  "5279": "Talib",
  "5280": "funn",
  "5281": "What",
  "5282": "sounds ",
  "5283": "one th",
  "5284": "known as ",
  "5285": "Act",
  "5286": "deep ",
  "5287": "resist",
  "5288": "Sec",
  "5289": "considered ",
  "5290": "ent\n",
  "5291": "loy",
  "5292": "decades ",
  "5293": "away from ",
  "5294": "Hong Kong",
  "5295": "mal",
  "5296": "mit",
  "5297": "ing an ",
  "5298": "learn ",
  "5299": "style ",
  "5300": "ians",
  "5301": "conversation",
  "5302": "aul",
  "5303": "heart",
  "5304": " mean",
  "5305": "produce ",
  "5306": "you just ",
  "5307": "imagine ",
  "5308": "provide ",
  "5309": "out and ",
  "5310": "spot",
  "5311": "mas",
  "5312": "oxy",
  "5313": ", then ",
  "5314": "care",
  "5315": "ees ",
  "5316": "Bo",
  "5317": "along the ",
  "5318": "all that ",
  "5319": "computer ",
  "5320": "regard",
  "5321": "cu",
  "5322": "how they ",
  "5323": "lead ",
  "5324": "clearly ",
  "5325": "a better ",
  "5326": "hun",
  "5327": "elections ",
  "5328": "when\n",
  "5329": "explain ",
  "5330": "giant ",
  "5331": "era ",
  "5332": "elimin",
  "5333": "ultimately ",
  "5334": " months ",
  "5335": "e. Th",
  "5336": " was the ",
  "5337": "degre",
  "5338": "policy",
  "5339": "seven ",
  "5340": "dies ",
  "5341": "link",
  "5342": "necessarily ",
  "5343": "ing up ",
  "5344": "erve ",
  "5345": "do that ",
  "5346": "years of ",
  "5347": "ing? ",
  "5348": "defend",
  "5349": "God",
  "5350": "lob",
  "5351": "nobody ",
  "5352": "community",
  "5353": "Goog",
  "5354": "industry",
  "5355": "inson",
  "5356": "ccord",
  "5357": " type of ",
  "5358": ". Do ",
  "5359": "you, ",
  "5360": "ont",
  "5361": " world ",
  "5362": "Trump's ",
  "5363": "feet ",
  "5364": "I don\u2019t ",
  "5365": "arc",
  "5366": "needs to ",
  "5367": "Now ",
  "5368": "ing of the ",
  "5369": "term ",
  "5370": "majority ",
  "5371": "et\u2019s ",
  "5372": "FBI ",
  "5373": "zra Klein: ",
  "5374": "There's ",
  "5375": "knows ",
  "5376": "radio ",
  "5377": ". At the ",
  "5378": "fall ",
  "5379": " back ",
  "5380": "mission",
  "5381": "position ",
  "5382": "himself",
  "5383": "evelop",
  "5384": "foreign",
  "5385": "infl",
  "5386": "we\u2019",
  "5387": "ana ",
  "5388": "near ",
  "5389": "ched",
  "5390": "sun",
  "5391": "archit",
  "5392": "for their ",
  "5393": "existing ",
  "5394": "changing ",
  "5395": "anch",
  "5396": "least",
  "5397": " thank you ",
  "5398": "yl",
  "5399": "oral ",
  "5400": "led to ",
  "5401": "Congress",
  "5402": "ech ",
  "5403": ". There was ",
  "5404": "idea that ",
  "5405": "campaign ",
  "5406": "fit ",
  "5407": "ing up",
  "5408": "autom",
  "5409": "ped",
  "5410": "Naz",
  "5411": "an in",
  "5412": "debate ",
  "5413": "ense of ",
  "5414": "abortion",
  "5415": "jobs ",
  "5416": "shoot",
  "5417": " mod",
  "5418": "fing",
  "5419": "jail",
  "5420": "blue ",
  "5421": "bank",
  "5422": "engag",
  "5423": "oman ",
  "5424": "ctob",
  "5425": "s. E",
  "5426": "blood",
  "5427": "all this ",
  "5428": ". On ",
  "5429": "officials ",
  "5430": "Union",
  "5431": "official ",
  "5432": "prem",
  "5433": "violent ",
  "5434": "period",
  "5435": "aiw",
  "5436": "\nhave ",
  "5437": "response ",
  "5438": " may ",
  "5439": "familiar",
  "5440": "pock",
  "5441": ". I\u2019m ",
  "5442": "1970",
  "5443": "scal",
  "5444": "plant ",
  "5445": "more and more ",
  "5446": "in S",
  "5447": "? H",
  "5448": "orpor",
  "5449": "short ",
  "5450": "videos",
  "5451": "potential ",
  "5452": ". It is ",
  "5453": ", which is ",
  "5454": ". Every",
  "5455": "week ",
  "5456": "a lot more ",
  "5457": " to do ",
  "5458": "an's ",
  "5459": ". For",
  "5460": "y\nto ",
  "5461": "pregn",
  "5462": "where\n",
  "5463": "item",
  "5464": "american ",
  "5465": "train",
  "5466": "s.\u201d ",
  "5467": "... the ",
  "5468": "ate s",
  "5469": "as it ",
  "5470": "revolution",
  "5471": "makes it ",
  "5472": "standard ",
  "5473": "simply ",
  "5474": " things that ",
  "5475": " does ",
  "5476": "bottom ",
  "5477": ". He's ",
  "5478": " build",
  "5479": "urban ",
  "5480": "meet ",
  "5481": "grow ",
  "5482": "island",
  "5483": "\nthat's ",
  "5484": "Res",
  "5485": "Gr",
  "5486": "ure and ",
  "5487": "elling ",
  "5488": "court ",
  "5489": "opin",
  "5490": "workers ",
  "5491": " totally ",
  "5492": "west",
  "5493": "mark ",
  "5494": "are, ",
  "5495": "8, ",
  "5496": "particular ",
  "5497": "ons ",
  "5498": "feder",
  "5499": "strik",
  "5500": "continue to ",
  "5501": "Middle ",
  "5502": "conflict ",
  "5503": ". But, ",
  "5504": "anth",
  "5505": "Pakist",
  "5506": "impeach",
  "5507": ". And that\u2019s ",
  "5508": "most\n",
  "5509": "i, ",
  "5510": "indic",
  "5511": "Octob",
  "5512": "ially",
  "5513": "chann",
  "5514": "ij",
  "5515": "uring the ",
  "5516": "no one ",
  "5517": ". With ",
  "5518": "each other ",
  "5519": "\nto the ",
  "5520": ". When the ",
  "5521": "e. It's ",
  "5522": "40 ",
  "5523": "kill ",
  "5524": "entirely ",
  "5525": "win",
  "5526": "e. S",
  "5527": "12 ",
  "5528": "ability ",
  "5529": "brid",
  "5530": "ing. The ",
  "5531": " talking about ",
  "5532": ", these ",
  "5533": "problems ",
  "5534": "search",
  "5535": "? The ",
  "5536": "respect",
  "5537": "environment ",
  "5538": "prescri",
  "5539": "responsib",
  "5540": "in L",
  "5541": "Department ",
  "5542": "function",
  "5543": " has ",
  "5544": "but it's ",
  "5545": "primary ",
  "5546": "brain",
  "5547": "a hund",
  "5548": "picture",
  "5549": "ycl",
  "5550": "leaders ",
  "5551": " to that ",
  "5552": "scienc",
  "5553": "piece of ",
  "5554": "izing ",
  "5555": "ires",
  "5556": "visit",
  "5557": "your c",
  "5558": "Hillary ",
  "5559": ", that\u2019s ",
  "5560": "fal",
  "5561": "folks ",
  "5562": "h, ",
  "5563": "ing with",
  "5564": "includes ",
  "5565": "And the ",
  "5566": ". His ",
  "5567": "has the ",
  "5568": "a year",
  "5569": "ideas ",
  "5570": "appoint",
  "5571": "drop",
  "5572": "highly ",
  "5573": "ier ",
  "5574": "der",
  "5575": "communities ",
  "5576": "favorite ",
  "5577": "even more ",
  "5578": "largely ",
  "5579": "s about ",
  "5580": "parking ",
  "5581": "ed. And ",
  "5582": "of this",
  "5583": "ired",
  "5584": "e countr",
  "5585": "years ago",
  "5586": "astron",
  "5587": "would have ",
  "5588": "people that ",
  "5589": "eful ",
  "5590": "bow",
  "5591": "consequenc",
  "5592": "ift ",
  "5593": "district",
  "5594": "boy",
  "5595": "hip",
  "5596": "auc",
  "5597": "nav",
  "5598": "One of the ",
  "5599": "it\u2019s\n",
  "5600": "u.s ",
  "5601": "a small",
  "5602": "dream",
  "5603": "second ",
  "5604": "195",
  "5605": "es, the ",
  "5606": "canc",
  "5607": "edly ",
  "5608": "generation",
  "5609": "e. They ",
  "5610": "numbers ",
  "5611": "a whole ",
  "5612": " can't ",
  "5613": " take the ",
  "5614": " things like ",
  "5615": "ape",
  "5616": "\nthrough",
  "5617": "ists",
  "5618": "overwhelm",
  "5619": "Dec",
  "5620": "ton ",
  "5621": "construct",
  "5622": "gent",
  "5623": "mention",
  "5624": "passed ",
  "5625": "cities",
  "5626": "immediately ",
  "5627": "yn",
  "5628": "arri",
  "5629": "people who are ",
  "5630": "eye ",
  "5631": "60 ",
  "5632": "North Carol",
  "5633": "Americans",
  "5634": "alli",
  "5635": "driving ",
  "5636": "-w",
  "5637": " don't ",
  "5638": "is just ",
  "5639": "anybody ",
  "5640": "narr",
  "5641": "strang",
  "5642": "Ven",
  "5643": "won ",
  "5644": "is that the ",
  "5645": "demonstr",
  "5646": "illegal ",
  "5647": "sus",
  "5648": "EU",
  "5649": "doct",
  "5650": "ype",
  "5651": "pro-",
  "5652": "David ",
  "5653": "very\n",
  "5654": "NN",
  "5655": "ignor",
  "5656": "ortug",
  "5657": " to tr",
  "5658": "on the\n",
  "5659": "Cov",
  "5660": "she was ",
  "5661": "iff",
  "5662": " then, ",
  "5663": "-th",
  "5664": "arriv",
  "5665": "as long ",
  "5666": "s. F",
  "5667": "ban",
  "5668": "ic m",
  "5669": "rather than ",
  "5670": "e. This ",
  "5671": "on to ",
  "5672": "step ",
  "5673": "push ",
  "5674": "stick",
  "5675": "plic",
  "5676": "you get ",
  "5677": "arry ",
  "5678": "your m",
  "5679": "physic",
  "5680": "visual ",
  "5681": "alized ",
  "5682": "fash",
  "5683": "class ",
  "5684": " conc",
  "5685": "es of the ",
  "5686": "character",
  "5687": "sea ",
  "5688": "carbon ",
  "5689": "estimat",
  "5690": "reasons ",
  "5691": "worst ",
  "5692": "he said ",
  "5693": "basic ",
  "5694": "feeling ",
  "5695": "every single ",
  "5696": "Senate ",
  "5697": "aily ",
  "5698": "pool",
  "5699": "I'd ",
  "5700": "iden ",
  "5701": "profit",
  "5702": "a lot of the ",
  "5703": "\nthere ",
  "5704": "let\u2019s ",
  "5705": "too",
  "5706": "ed the s",
  "5707": "explos",
  "5708": "in your ",
  "5709": "hael ",
  "5710": "North Kore",
  "5711": "sort ",
  "5712": "as, ",
  "5713": "comment",
  "5714": "media",
  "5715": "by\n",
  "5716": "OK",
  "5717": "your\n",
  "5718": "mm",
  "5719": "e. You",
  "5720": "deliver",
  "5721": " make ",
  "5722": "e through",
  "5723": "rural ",
  "5724": "as a s",
  "5725": "meant",
  "5726": "we se",
  "5727": "All",
  "5728": "grav",
  "5729": "rock ",
  "5730": "olar",
  "5731": "relatively ",
  "5732": "ing,\n",
  "5733": "who were ",
  "5734": "review",
  "5735": " they have ",
  "5736": "a massive ",
  "5737": "prove ",
  "5738": "standard",
  "5739": "green",
  "5740": "because of the ",
  "5741": "met ",
  "5742": "e this",
  "5743": "ed on the ",
  "5744": "shop",
  "5745": "at that ",
  "5746": "in the world ",
  "5747": "death ",
  "5748": "do the ",
  "5749": "s. That ",
  "5750": " decad",
  "5751": "for that ",
  "5752": "important to ",
  "5753": "eption",
  "5754": "rhy",
  "5755": "politics ",
  "5756": "istak",
  "5757": "I\n",
  "5758": "iate ",
  "5759": "en to ",
  "5760": "increasingly ",
  "5761": "responsible ",
  "5762": "is in ",
  "5763": "evolv",
  "5764": "administration",
  "5765": "mass",
  "5766": "a third ",
  "5767": "spend",
  "5768": "requires ",
  "5769": "flight ",
  "5770": "respons",
  "5771": "\nan ",
  "5772": " thinking ",
  "5773": "meant to ",
  "5774": "habit",
  "5775": "list ",
  "5776": "us and ",
  "5777": "individual",
  "5778": "\nwith",
  "5779": "behavior",
  "5780": "around the world ",
  "5781": "ality ",
  "5782": "ular",
  "5783": "today",
  "5784": "ifically ",
  "5785": "year-",
  "5786": "alone ",
  "5787": "suppl",
  "5788": "etimes ",
  "5789": "explor",
  "5790": "e there's ",
  "5791": "e can",
  "5792": "phen",
  "5793": "nos",
  "5794": "es to the ",
  "5795": "needed ",
  "5796": " well",
  "5797": "sell ",
  "5798": "ing,",
  "5799": "uman ",
  "5800": "even though ",
  "5801": "gonna be ",
  "5802": "union",
  "5803": "see that ",
  "5804": "finish",
  "5805": "we should ",
  "5806": "House",
  "5807": "American\n",
  "5808": "platform",
  "5809": "Obamacare ",
  "5810": "500",
  "5811": ".\" And ",
  "5812": "me, ",
  "5813": "ould\n",
  "5814": "ank you ",
  "5815": "th, ",
  "5816": "iction",
  "5817": "occur",
  "5818": "\nat ",
  "5819": "uddenly ",
  "5820": "you want",
  "5821": "our m",
  "5822": " miles ",
  "5823": "lifetim",
  "5824": "obsess",
  "5825": "super",
  "5826": " target",
  "5827": "it doesn't ",
  "5828": " true ",
  "5829": "make",
  "5830": "pal",
  "5831": "above ",
  "5832": "spl",
  "5833": "surround",
  "5834": "cause ",
  "5835": ". These are ",
  "5836": "phr",
  "5837": "corpor",
  "5838": "about a ",
  "5839": "2019",
  "5840": " they can ",
  "5841": "taken ",
  "5842": "brain ",
  "5843": ". One of the ",
  "5844": "invas",
  "5845": "access ",
  "5846": "lightly ",
  "5847": "talking about ",
  "5848": "we need to ",
  "5849": "ani",
  "5850": "about that ",
  "5851": "be w",
  "5852": " G",
  "5853": "fu",
  "5854": "distanc",
  "5855": " cr",
  "5856": "To",
  "5857": "for them",
  "5858": "how many ",
  "5859": "ation of the ",
  "5860": "prosec",
  "5861": "a ter",
  "5862": "sure ",
  "5863": "Saudi Arab",
  "5864": "Facebook ",
  "5865": "it\u2019s not ",
  "5866": "s. This ",
  "5867": "cod",
  "5868": ". I don't ",
  "5869": "rig",
  "5870": "save ",
  "5871": "born",
  "5872": "bul",
  "5873": "\nor ",
  "5874": "innov",
  "5875": "leading ",
  "5876": "full of ",
  "5877": ". And then",
  "5878": "ows ",
  "5879": "everywhere",
  "5880": "ocean",
  "5881": "six ",
  "5882": "sign ",
  "5883": "s. In ",
  "5884": "danc",
  "5885": " that are ",
  "5886": "AR",
  "5887": "happy ",
  "5888": " busin",
  "5889": "24",
  "5890": " came ",
  "5891": "ing out ",
  "5892": "obviously ",
  "5893": "preced",
  "5894": "you want ",
  "5895": "vast ",
  "5896": "guarant",
  "5897": "oct",
  "5898": "anything",
  "5899": "NB",
  "5900": "afr",
  "5901": "decide ",
  "5902": "regular",
  "5903": "or d",
  "5904": "haw",
  "5905": "ed that the ",
  "5906": "recent",
  "5907": "cohol",
  "5908": "weet ",
  "5909": "Christop",
  "5910": "er\u2019s ",
  "5911": "orith",
  "5912": "ge ",
  "5913": "If",
  "5914": "amm",
  "5915": "here's ",
  "5916": "adem",
  "5917": "9, ",
  "5918": "decided to ",
  "5919": "distinc",
  "5920": "al to ",
  "5921": "fell",
  "5922": "1980",
  "5923": "zero ",
  "5924": " temperat",
  "5925": "back and ",
  "5926": "assist",
  "5927": "possib",
  "5928": "demand",
  "5929": "s. It's ",
  "5930": "words ",
  "5931": "ang ",
  "5932": "what that ",
  "5933": "a min",
  "5934": "when it comes to ",
  "5935": "nut",
  "5936": "ocean ",
  "5937": " spec",
  "5938": "Min",
  "5939": "indig",
  "5940": "where you ",
  "5941": ". I mean, ",
  "5942": ". Many ",
  "5943": "accident",
  "5944": "a mov",
  "5945": "fossil fuel",
  "5946": "allow ",
  "5947": "allows ",
  "5948": "keeps ",
  "5949": "fly ",
  "5950": "I got ",
  "5951": "oke ",
  "5952": " test ",
  "5953": ". Or ",
  "5954": "I don't",
  "5955": "chip",
  "5956": "inner ",
  "5957": "20th centur",
  "5958": "down to ",
  "5959": "istic ",
  "5960": "go to the ",
  "5961": "empor",
  "5962": "sick ",
  "5963": "bill ",
  "5964": "in 18",
  "5965": "Cr",
  "5966": "intelligence ",
  "5967": "Kor",
  "5968": "institution",
  "5969": "s\nare ",
  "5970": "rh",
  "5971": "imb",
  "5972": "because\n",
  "5973": "pig",
  "5974": ", the\n",
  "5975": "or] ",
  "5976": "can\n",
  "5977": "e we're ",
  "5978": "e called ",
  "5979": "contro",
  "5980": "isn't",
  "5981": "critic",
  "5982": "kept",
  "5983": "allowed ",
  "5984": "phil",
  "5985": ". Befor",
  "5986": "a great ",
  "5987": "exist ",
  "5988": "you'll",
  "5989": "positive ",
  "5990": "plants ",
  "5991": "ep ",
  "5992": " the t",
  "5993": "solution",
  "5994": "means that ",
  "5995": "looked at ",
  "5996": "indigen",
  "5997": "assa",
  "5998": "versi",
  "5999": " throughout the ",
  "6000": "morn",
  "6001": "DA",
  "6002": "devast",
  "6003": "stopped ",
  "6004": ". We have ",
  "6005": "majority of ",
  "6006": "carri",
  "6007": "network ",
  "6008": "do is ",
  "6009": "limited ",
  "6010": "ince the ",
  "6011": "we have to ",
  "6012": "written ",
  "6013": "lav",
  "6014": "religious ",
  "6015": "ed to\n",
  "6016": ", there ",
  "6017": "advoc",
  "6018": "alcohol",
  "6019": "s\nin ",
  "6020": "legislat",
  "6021": "unemployment ",
  "6022": "rhyth",
  "6023": "modern",
  "6024": "2015",
  "6025": "candidates ",
  "6026": "republic",
  "6027": "all\n",
  "6028": "ed the\n",
  "6029": "algorith",
  "6030": "other\n",
  "6031": "Arct",
  "6032": "he said",
  "6033": "feels ",
  "6034": "I was",
  "6035": "\u201cThe ",
  "6036": "integr",
  "6037": "direction",
  "6038": "attent",
  "6039": "program ",
  "6040": " ten ",
  "6041": "way, ",
  "6042": "vest",
  "6043": "y,\n",
  "6044": "perhap",
  "6045": "more than",
  "6046": "ients ",
  "6047": ". I've ",
  "6048": "I do ",
  "6049": "multiple ",
  "6050": "rules ",
  "6051": "forces ",
  "6052": "sil",
  "6053": "plet",
  "6054": "bear",
  "6055": ". But this ",
  "6056": "e cas",
  "6057": "out to ",
  "6058": "coast",
  "6059": "require ",
  "6060": "instead ",
  "6061": "potentially ",
  "6062": "emissions ",
  "6063": "amount",
  "6064": "eating ",
  "6065": " countri",
  "6066": " transport",
  "6067": "ies are ",
  "6068": "brand",
  "6069": "modern ",
  "6070": "you need to ",
  "6071": "wouldn't ",
  "6072": "e, it ",
  "6073": "y was ",
  "6074": "up with",
  "6075": "AS",
  "6076": "wants to ",
  "6077": "depend",
  "6078": "uments ",
  "6079": "uation ",
  "6080": "purcha",
  "6081": "Jo",
  "6082": "photos ",
  "6083": "id-",
  "6084": "ed them",
  "6085": "education",
  "6086": "ariju",
  "6087": "gav",
  "6088": "I didn't ",
  "6089": "Mr",
  "6090": "s. S",
  "6091": "a series of ",
  "6092": "laim",
  "6093": "took ",
  "6094": "assum",
  "6095": "direct ",
  "6096": "began to ",
  "6097": "uccess",
  "6098": "its own",
  "6099": "watch ",
  "6100": "one's ",
  "6101": "s. You",
  "6102": "7, ",
  "6103": "rise ",
  "6104": "island ",
  "6105": "element",
  "6106": "architect",
  "6107": "facilit",
  "6108": "impress",
  "6109": "mel",
  "6110": ". Thes",
  "6111": "communities",
  "6112": "react",
  "6113": "til",
  "6114": "developed ",
  "6115": "voice ",
  "6116": " someone ",
  "6117": "countries",
  "6118": "machin",
  "6119": "2020 ",
  "6120": "in the US ",
  "6121": "serious ",
  "6122": "sold ",
  "6123": "our\n",
  "6124": "e the same ",
  "6125": "student ",
  "6126": "We're ",
  "6127": "way of ",
  "6128": "staf",
  "6129": "shut ",
  "6130": "in the middle ",
  "6131": "legit",
  "6132": " ma",
  "6133": ". We are ",
  "6134": "Amaz",
  "6135": "2016 ",
  "6136": "lett",
  "6137": "heard",
  "6138": "ify",
  "6139": "iously ",
  "6140": "shad",
  "6141": "doctor",
  "6142": "dead ",
  "6143": " these are ",
  "6144": "Nov",
  "6145": "united ",
  "6146": "lock",
  "6147": "seen",
  "6148": "being",
  "6149": "English",
  "6150": "s on the ",
  "6151": ",\u201d ",
  "6152": ", there\u2019s ",
  "6153": "had\n",
  "6154": ":<i> ",
  "6155": "mr",
  "6156": "Bernie ",
  "6157": "u ",
  "6158": ". I'm",
  "6159": "With",
  "6160": "ret ",
  "6161": "ic c",
  "6162": "magaz",
  "6163": "pect ",
  "6164": "he had ",
  "6165": "cast ",
  "6166": "reveal",
  "6167": "ended up ",
  "6168": "General ",
  "6169": "decades",
  "6170": "ultural ",
  "6171": "becoming ",
  "6172": "stret",
  "6173": "station",
  "6174": "a ton of ",
  "6175": "er's ",
  "6176": "inf",
  "6177": "e thes",
  "6178": "specific ",
  "6179": " times",
  "6180": "use of ",
  "6181": "e, \n",
  "6182": "e sp",
  "6183": "store ",
  "6184": "California",
  "6185": "rupt",
  "6186": "a look ",
  "6187": "s or ",
  "6188": "January ",
  "6189": "lives",
  "6190": "crisis ",
  "6191": "fake ",
  "6192": "most of ",
  "6193": ". At",
  "6194": "online ",
  "6195": "I can",
  "6196": "have this ",
  "6197": " without ",
  "6198": "Net",
  "6199": "Febr",
  "6200": " dat",
  "6201": "diag",
  "6202": "like w",
  "6203": "fired ",
  "6204": "kin",
  "6205": "Korea",
  "6206": "oh ",
  "6207": "immigrant",
  "6208": "talk",
  "6209": "re-",
  "6210": "country, ",
  "6211": "ER: ",
  "6212": "\u266a ",
  "6213": "Ric",
  "6214": "atory ",
  "6215": "f cour",
  "6216": "icult ",
  "6217": "The s",
  "6218": "addition",
  "6219": "may be ",
  "6220": "level of ",
  "6221": "retary ",
  "6222": "died ",
  "6223": "ology",
  "6224": "doubl",
  "6225": "weird",
  "6226": "ent, ",
  "6227": " they\u2019ve ",
  "6228": "invad",
  "6229": " many ",
  "6230": "just to ",
  "6231": "vision",
  "6232": "a mod",
  "6233": "Paul",
  "6234": "it has ",
  "6235": "rew ",
  "6236": "James ",
  "6237": "I am",
  "6238": "in the first ",
  "6239": "im ",
  "6240": "proport",
  "6241": "people of ",
  "6242": "consider ",
  "6243": "ic b",
  "6244": "uli",
  "6245": "enjoy",
  "6246": "ed t",
  "6247": "elected ",
  "6248": "une ",
  "6249": ". Accord",
  "6250": "risk of ",
  "6251": "ket",
  "6252": "you'd ",
  "6253": "article ",
  "6254": "weren\u2019t ",
  "6255": "ino ",
  "6256": "on your ",
  "6257": "World C",
  "6258": "Act ",
  "6259": "do this ",
  "6260": "avoid ",
  "6261": "nomin",
  "6262": "just like ",
  "6263": " threaten",
  "6264": "she's ",
  "6265": "within ",
  "6266": "rog",
  "6267": "say that ",
  "6268": "ing the\n",
  "6269": "eclip",
  "6270": "Flyn",
  "6271": "messag",
  "6272": ". We w",
  "6273": "is actually ",
  "6274": ". Now ",
  "6275": "un ",
  "6276": "21",
  "6277": "1950",
  "6278": "I want",
  "6279": "soldi",
  "6280": "with s",
  "6281": " terri",
  "6282": " the most ",
  "6283": "incredible ",
  "6284": "honest",
  "6285": "ody",
  "6286": "\nabout ",
  "6287": "idden ",
  "6288": "patients ",
  "6289": "ios",
  "6290": ". Every ",
  "6291": "nap",
  "6292": "starting to ",
  "6293": "e. That ",
  "6294": "generally ",
  "6295": "ig ",
  "6296": "ago, ",
  "6297": "camp",
  "6298": "Ital",
  "6299": "gold",
  "6300": " think about ",
  "6301": "and they're ",
  "6302": "fish ",
  "6303": "sist",
  "6304": "ulture ",
  "6305": "he would ",
  "6306": "and I ",
  "6307": "hot ",
  "6308": " countries ",
  "6309": "Jos",
  "6310": "funding ",
  "6311": "ape ",
  "6312": "s but ",
  "6313": "pre-",
  "6314": "er was ",
  "6315": "van",
  "6316": "iver ",
  "6317": "story of ",
  "6318": "you can't ",
  "6319": "caught ",
  "6320": "a small ",
  "6321": "ool",
  "6322": ". Ab",
  "6323": "German ",
  "6324": " talking ",
  "6325": "legisl",
  "6326": "leagu",
  "6327": "serve ",
  "6328": "ed, and ",
  "6329": " traditional ",
  "6330": "people's ",
  "6331": "outcom",
  "6332": "\nthem",
  "6333": "hands ",
  "6334": "& ",
  "6335": "hh",
  "6336": "s, \n",
  "6337": "long-",
  "6338": "and their ",
  "6339": "Party ",
  "6340": "reat ",
  "6341": "declar",
  "6342": "in 198",
  "6343": "a major ",
  "6344": "second",
  "6345": "aggress",
  "6346": "ed with the ",
  "6347": "flight",
  "6348": "offer ",
  "6349": "letter",
  "6350": "ace ",
  "6351": "es this ",
  "6352": "we would ",
  "6353": "agric",
  "6354": " world",
  "6355": "ey, ",
  "6356": "z ",
  "6357": "y? ",
  "6358": "federal government ",
  "6359": "products ",
  "6360": "because we ",
  "6361": "ist of ",
  "6362": "state of ",
  "6363": "chemical",
  "6364": ". He was ",
  "6365": "bigger ",
  "6366": "shut",
  "6367": "YouTube ",
  "6368": "otally ",
  "6369": ", is ",
  "6370": "unk",
  "6371": "ension",
  "6372": "well-",
  "6373": "highway ",
  "6374": "front of ",
  "6375": "s, they ",
  "6376": "played ",
  "6377": ". No ",
  "6378": "coo",
  "6379": "to-",
  "6380": "e\nthat ",
  "6381": "ocol",
  "6382": "littl",
  "6383": "Yeah, ",
  "6384": "Michael ",
  "6385": "reward",
  "6386": "Tik",
  "6387": "iger",
  "6388": "I mean",
  "6389": "keep the ",
  "6390": "uff",
  "6391": "e\nin ",
  "6392": "imple ",
  "6393": "hospital",
  "6394": "GO",
  "6395": ":<i>",
  "6396": "Stinson",
  "6397": "pound",
  "6398": "baby ",
  "6399": "address",
  "6400": "drop ",
  "6401": "'s this ",
  "6402": "e show",
  "6403": "points ",
  "6404": "urviv",
  "6405": ", t",
  "6406": "reven",
  "6407": "electron",
  "6408": "stuck ",
  "6409": "of thes",
  "6410": "enorm",
  "6411": "Vict",
  "6412": "ability",
  "6413": "why the ",
  "6414": "balanc",
  "6415": "kilomet",
  "6416": "benefit",
  "6417": "with this ",
  "6418": "ens of ",
  "6419": "Bro",
  "6420": "church",
  "6421": "which was ",
  "6422": "ating the ",
  "6423": "dark ",
  "6424": "1800",
  "6425": "recommend",
  "6426": "seeing ",
  "6427": "cloth",
  "6428": "we do ",
  "6429": "let me ",
  "6430": "experts ",
  "6431": "vaccine ",
  "6432": "Willi",
  "6433": "echan",
  "6434": "encourag",
  "6435": "demand ",
  "6436": "inch",
  "6437": "Atlant",
  "6438": "bed ",
  "6439": "chi",
  "6440": "amazing ",
  "6441": "Africa",
  "6442": "Sm",
  "6443": "constitution",
  "6444": "like,\n",
  "6445": "different\n",
  "6446": "you\u2019ll ",
  "6447": "s that\n",
  "6448": " music ",
  "6449": "his\n",
  "6450": "d\n",
  "6451": ":<i>\n ",
  "6452": "performanc",
  "6453": ". (",
  "6454": " trust ",
  "6455": "profession",
  "6456": "\ntheir",
  "6457": "inspired ",
  "6458": "came to ",
  "6459": "Yes",
  "6460": "lon",
  "6461": "who had ",
  "6462": "Attor",
  "6463": "news",
  "6464": "here to ",
  "6465": "roughly ",
  "6466": "suffer",
  "6467": "for it",
  "6468": "cred",
  "6469": "or not",
  "6470": "himself ",
  "6471": "normal",
  "6472": "world's ",
  "6473": "growth",
  "6474": "known as the ",
  "6475": "region ",
  "6476": "keeping ",
  "6477": "rocket",
  "6478": "embl",
  "6479": "started",
  "6480": "spap",
  "6481": "Or ",
  "6482": "regim",
  "6483": "what happens ",
  "6484": "wide ",
  "6485": "female ",
  "6486": "Okay",
  "6487": "lem",
  "6488": "patient",
  "6489": "history of ",
  "6490": "CE",
  "6491": "beyond ",
  "6492": "for you",
  "6493": "DNA",
  "6494": "we'r",
  "6495": "e countries ",
  "6496": "a g",
  "6497": "talking ",
  "6498": "a time ",
  "6499": "3, ",
  "6500": "character ",
  "6501": "reaction",
  "6502": "high school",
  "6503": "raft ",
  "6504": "a hundred ",
  "6505": "die ",
  "6506": ". If the ",
  "6507": "2016",
  "6508": "people with",
  "6509": "11 ",
  "6510": "skill",
  "6511": "indigenous ",
  "6512": "Columb",
  "6513": "remend",
  "6514": ". He\u2019s ",
  "6515": "Apr",
  "6516": "intention",
  "6517": "random",
  "6518": "okay",
  "6519": "time, ",
  "6520": "rect ",
  "6521": "haz",
  "6522": "ation is ",
  "6523": "people. ",
  "6524": "confirm",
  "6525": "iot",
  "6526": "language ",
  "6527": "instr",
  "6528": "Ukrainian ",
  "6529": "likely",
  "6530": "websit",
  "6531": "instead",
  "6532": "about to ",
  "6533": "older ",
  "6534": ". Now, ",
  "6535": "switch",
  "6536": "\non the ",
  "6537": ", they're ",
  "6538": "a couple ",
  "6539": ". The w",
  "6540": "challenge ",
  "6541": "eed",
  "6542": "labor",
  "6543": "remind",
  "6544": ". Which is ",
  "6545": "energy",
  "6546": "rates ",
  "6547": "proces",
  "6548": "pite ",
  "6549": " the second ",
  "6550": "mut",
  "6551": "cow",
  "6552": " down ",
  "6553": "starting ",
  "6554": "director ",
  "6555": "Aug",
  "6556": "ky",
  "6557": "pair",
  "6558": "Warr",
  "6559": "Conn",
  "6560": "one in ",
  "6561": "brief",
  "6562": "location",
  "6563": "ignific",
  "6564": "\nit ",
  "6565": "form of ",
  "6566": "change the ",
  "6567": "adopt",
  "6568": "I beli",
  "6569": " think that ",
  "6570": "ogg",
  "6571": "e call",
  "6572": " would be ",
  "6573": "are we ",
  "6574": "outside ",
  "6575": ".5",
  "6576": "categ",
  "6577": "luck",
  "6578": "observ",
  "6579": "estri",
  "6580": "every year",
  "6581": "Texas ",
  "6582": "ses ",
  "6583": "As ",
  "6584": "doub",
  "6585": "est\n",
  "6586": "itud",
  "6587": "analys",
  "6588": " talk to ",
  "6589": " she ",
  "6590": "uit",
  "6591": "berg",
  "6592": ". A lot of ",
  "6593": "DC ",
  "6594": "I did ",
  "6595": "aster ",
  "6596": "ortugues",
  "6597": "[Applause] ",
  "6598": "he was",
  "6599": "ed,\n",
  "6600": "Okay, ",
  "6601": "site ",
  "6602": " in the ",
  "6603": "include ",
  "6604": "24 ",
  "6605": "you should ",
  "6606": "\n- ",
  "6607": "difficult ",
  "6608": "ley ",
  "6609": "adult",
  "6610": ".\u201d But ",
  "6611": "vox",
  "6612": "labor ",
  "6613": "a way to ",
  "6614": "cases ",
  "6615": "safe ",
  "6616": ". Instead",
  "6617": "easily ",
  "6618": "years. ",
  "6619": " the first ",
  "6620": "showing ",
  "6621": "ways to ",
  "6622": "ympt",
  "6623": "s. B",
  "6624": "argument ",
  "6625": " those who ",
  "6626": "og ",
  "6627": "do to ",
  "6628": "I'm going to ",
  "6629": "won't ",
  "6630": "equip",
  "6631": " towards ",
  "6632": "Sud",
  "6633": "one of these ",
  "6634": "expans",
  "6635": "rum",
  "6636": "feed",
  "6637": "acter",
  "6638": "s and the ",
  "6639": "wrong ",
  "6640": "colon",
  "6641": "us\n",
  "6642": "club",
  "6643": "uster ",
  "6644": "at the same tim",
  "6645": "iver",
  "6646": "ily",
  "6647": "ressive ",
  "6648": " cut",
  "6649": " deal",
  "6650": "looking for ",
  "6651": "extra ",
  "6652": "changed",
  "6653": "uh ",
  "6654": "Alex",
  "6655": "who is ",
  "6656": "friend ",
  "6657": "lean",
  "6658": "oop",
  "6659": "disappear",
  "6660": "guess",
  "6661": "bloc",
  "6662": "have that ",
  "6663": "portra",
  "6664": "method",
  "6665": "Obama",
  "6666": "variet",
  "6667": "day, ",
  "6668": "middl",
  "6669": "] \"",
  "6670": "ison",
  "6671": "stock ",
  "6672": "ome",
  "6673": "I know ",
  "6674": "e. - ",
  "6675": "I said ",
  "6676": "lic",
  "6677": "Attorney ",
  "6678": "regist",
  "6679": " spe",
  "6680": "complicated ",
  "6681": "event ",
  "6682": "leader ",
  "6683": "ior ",
  "6684": "advis",
  "6685": "Ang",
  "6686": "as well as ",
  "6687": "minor",
  "6688": "weeks ",
  "6689": "ban ",
  "6690": "grab",
  "6691": "urfac",
  "6692": " billion ",
  "6693": "\nthose ",
  "6694": "phras",
  "6695": "and the s",
  "6696": "San ",
  "6697": "-h",
  "6698": "if you want to ",
  "6699": " there, ",
  "6700": ", like ",
  "6701": "rely ",
  "6702": "animal ",
  "6703": "There are ",
  "6704": "es to",
  "6705": "setting ",
  "6706": "in a s",
  "6707": " travel ",
  "6708": "ancy ",
  "6709": "civil ",
  "6710": "development ",
  "6711": " trail",
  "6712": "Miss",
  "6713": "scor",
  "6714": "a man ",
  "6715": "strategy ",
  "6716": " spac",
  "6717": "pump",
  "6718": " think of ",
  "6719": " track ",
  "6720": "and so ",
  "6721": " trust",
  "6722": "treat",
  "6723": ".\u201d And ",
  "6724": "discuss",
  "6725": " trade ",
  "6726": "medi",
  "6727": "door ",
  "6728": "ampaign ",
  "6729": "hyp",
  "6730": "lawy",
  "6731": "Fil",
  "6732": " technology ",
  "6733": "it\u2019s",
  "6734": ". And, ",
  "6735": "e some",
  "6736": "ancest",
  "6737": "\u2019r",
  "6738": "called \u201c",
  "6739": "ere\n",
  "6740": "i'm ",
  "6741": "able\n",
  "6742": "occas",
  "6743": "onto ",
  "6744": "months ",
  "6745": "guil",
  "6746": "belong",
  "6747": "everal ",
  "6748": ", \u201c",
  "6749": "hasn't ",
  "6750": "complete ",
  "6751": "elit",
  "6752": " to make ",
  "6753": "yster",
  "6754": "ing. But ",
  "6755": "it wasn't ",
  "6756": " work ",
  "6757": "fasc",
  "6758": "ed over ",
  "6759": "apart ",
  "6760": "P ",
  "6761": " transform",
  "6762": "larger ",
  "6763": "s of thousands of ",
  "6764": "French ",
  "6765": "concret",
  "6766": "s that were ",
  "6767": "friends ",
  "6768": "Austr",
  "6769": "mind ",
  "6770": "made the ",
  "6771": "reserv",
  "6772": "alem",
  "6773": "cours",
  "6774": "does not ",
  "6775": " town",
  "6776": "segreg",
  "6777": "morning ",
  "6778": "feet",
  "6779": ". It's not ",
  "6780": ". Tr",
  "6781": "all of these ",
  "6782": "version",
  "6783": "rist",
  "6784": "our d",
  "6785": "where we ",
  "6786": "frustr",
  "6787": " mad",
  "6788": "minimum",
  "6789": "development",
  "6790": " there\n",
  "6791": "mob",
  "6792": "end the ",
  "6793": "previous ",
  "6794": "inspir",
  "6795": "IF",
  "6796": "artist ",
  "6797": ". Both",
  "6798": "correct",
  "6799": "band ",
  "6800": "it would be ",
  "6801": "White House ",
  "6802": "while the ",
  "6803": "a much",
  "6804": "or not ",
  "6805": "make\n",
  "6806": "river ",
  "6807": "antib",
  "6808": "umn",
  "6809": "place to ",
  "6810": "CNN",
  "6811": "Ukraine ",
  "6812": "exerc",
  "6813": "...\" \"",
  "6814": "we\u2019ve ",
  "6815": "cann",
  "6816": "partisan ",
  "6817": "interpret",
  "6818": "he\n",
  "6819": "who\n",
  "6820": "border",
  "6821": "Ed",
  "6822": ".com/",
  "6823": "some of ",
  "6824": ". So they ",
  "6825": "ation for ",
  "6826": "ation in ",
  "6827": "blam",
  "6828": "onavirus ",
  "6829": "extreme ",
  "6830": "ible",
  "6831": "I'm not ",
  "6832": "shr",
  "6833": "a second",
  "6834": " water ",
  "6835": "Earth ",
  "6836": " women ",
  "6837": "Sw",
  "6838": "clean ",
  "6839": "Lou",
  "6840": "Robert ",
  "6841": "happening",
  "6842": "truth",
  "6843": "first time ",
  "6844": "alf ",
  "6845": "restaur",
  "6846": "reduce ",
  "6847": " their d",
  "6848": "straight",
  "6849": "east ",
  "6850": "exact ",
  "6851": "a mom",
  "6852": "ed about ",
  "6853": "environmental ",
  "6854": "zone ",
  "6855": "ousands of ",
  "6856": "politician",
  "6857": "separate ",
  "6858": "\u2019ll",
  "6859": "rip",
  "6860": "Kenn",
  "6861": " come ",
  "6862": "band",
  "6863": "residents ",
  "6864": "e thought ",
  "6865": "out there ",
  "6866": "elevision",
  "6867": "Can ",
  "6868": "it. And ",
  "6869": "weight ",
  "6870": "ants to ",
  "6871": " trick",
  "6872": " by the ",
  "6873": "measure",
  "6874": "song ",
  "6875": " man",
  "6876": "wait ",
  "6877": "dress",
  "6878": "votes ",
  "6879": " of a ",
  "6880": "e then ",
  "6881": "abov",
  "6882": "mother ",
  "6883": "legal",
  "6884": "incentiv",
  "6885": "Mu",
  "6886": "end up ",
  "6887": "\u2019ll ",
  "6888": "ollect",
  "6889": "digital ",
  "6890": "amb",
  "6891": "Jerus",
  "6892": "Monopol",
  "6893": "is so ",
  "6894": "motiv",
  "6895": "entic",
  "6896": "hero",
  "6897": "Hann",
  "6898": "aed",
  "6899": "conspir",
  "6900": "on the other ",
  "6901": "October ",
  "6902": "became a ",
  "6903": "cultural ",
  "6904": "TV ",
  "6905": "request",
  "6906": " tell you ",
  "6907": " the system",
  "6908": "ically, ",
  "6909": "ing this",
  "6910": "live in ",
  "6911": " support",
  "6912": "e countri",
  "6913": "crack",
  "6914": "ouble ",
  "6915": "ular ",
  "6916": ". Whil",
  "6917": "irt",
  "6918": "west ",
  "6919": "study",
  "6920": "2018",
  "6921": "premium",
  "6922": "beyond",
  "6923": "uild",
  "6924": "corn",
  "6925": "in-",
  "6926": ". Today, ",
  "6927": "possible to ",
  "6928": ". \n",
  "6929": "professional ",
  "6930": "it really ",
  "6931": "floor",
  "6932": "various ",
  "6933": "applic",
  "6934": "screen",
  "6935": " well ",
  "6936": "plus ",
  "6937": "ustain",
  "6938": "a cent",
  "6939": "wrote ",
  "6940": "on his ",
  "6941": "its own ",
  "6942": "power to ",
  "6943": "investment",
  "6944": "catch",
  "6945": "along ",
  "6946": "n't\n",
  "6947": "convinc",
  "6948": " to them",
  "6949": ". Another ",
  "6950": "about what ",
  "6951": "due to ",
  "6952": "about how ",
  "6953": "atives ",
  "6954": "deduc",
  "6955": "prison ",
  "6956": "simple ",
  "6957": "gold ",
  "6958": "pain ",
  "6959": "greatest ",
  "6960": "Thom",
  "6961": "frame ",
  "6962": "Mexico",
  "6963": "fought ",
  "6964": "e think",
  "6965": "have to",
  "6966": "have to be ",
  "6967": "s can ",
  "6968": "K: ",
  "6969": "neut",
  "6970": "Reag",
  "6971": ". Look ",
  "6972": "ve\n",
  "6973": "negoti",
  "6974": "convict",
  "6975": "political\n",
  "6976": "sla",
  "6977": "government\n",
  "6978": "?\" \"",
  "6979": "\u201d \u201c",
  "6980": "going\nto ",
  "6981": "police offic",
  "6982": "right, ",
  "6983": "ipping ",
  "6984": " tax ",
  "6985": "one w",
  "6986": "amount ",
  "6987": "connection",
  "6988": "Nation",
  "6989": "roph",
  "6990": "principl",
  "6991": "pretty much ",
  "6992": "worked ",
  "6993": "e. But",
  "6994": "example ",
  "6995": "newspap",
  "6996": "quare ",
  "6997": "maintain",
  "6998": "conditions ",
  "6999": ". We've ",
  "7000": "French",
  "7001": "marri",
  "7002": "referenc",
  "7003": "glo",
  "7004": "lie ",
  "7005": "root",
  "7006": "limate ",
  "7007": ". Ex",
  "7008": "Austral",
  "7009": "issues ",
  "7010": "kid ",
  "7011": "make sur",
  "7012": "being\n",
  "7013": "anywhere ",
  "7014": "groc",
  "7015": "ondon",
  "7016": "California ",
  "7017": "ament",
  "7018": "from this ",
  "7019": "FBI",
  "7020": "exchange ",
  "7021": "crowd",
  "7022": "custom",
  "7023": "ollar ",
  "7024": "ed these ",
  "7025": "as much",
  "7026": "allowed to ",
  "7027": "Mexico ",
  "7028": "put the ",
  "7029": "\u201d and ",
  "7030": " techniqu",
  "7031": "s that the ",
  "7032": "oubl",
  "7033": " comp",
  "7034": "uit ",
  "7035": "background ",
  "7036": "allies ",
  "7037": "e col",
  "7038": " dollars ",
  "7039": "ortuguese] ",
  "7040": "mariju",
  "7041": "lor",
  "7042": "able, ",
  "7043": "oxygen ",
  "7044": "coc",
  "7045": "I'll",
  "7046": "reality ",
  "7047": "load",
  "7048": "i was ",
  "7049": "possibly ",
  "7050": " with a ",
  "7051": " develop",
  "7052": "rising ",
  "7053": "even the ",
  "7054": "es they ",
  "7055": "? What ",
  "7056": "close to ",
  "7057": "sampl",
  "7058": " toward",
  "7059": "thet",
  "7060": "forest ",
  "7061": "ror ",
  "7062": "ross",
  "7063": "e. You ",
  "7064": "uper",
  "7065": " told",
  "7066": "5, ",
  "7067": "fix ",
  "7068": "ed. But ",
  "7069": "content ",
  "7070": "picture ",
  "7071": "rew",
  "7072": "manufactur",
  "7073": "Mo",
  "7074": ". There were ",
  "7075": " cap",
  "7076": "13 ",
  "7077": "at least",
  "7078": "woman",
  "7079": "grid",
  "7080": "pull ",
  "7081": "star ",
  "7082": "es or ",
  "7083": "ucks ",
  "7084": "all the tim",
  "7085": "I can't ",
  "7086": "engineer",
  "7087": "abortion ",
  "7088": "mid-",
  "7089": "Mer",
  "7090": "detect",
  "7091": "Frank",
  "7092": "bound",
  "7093": "phenomen",
  "7094": "ail ",
  "7095": "There\u2019s ",
  "7096": "I don't know ",
  "7097": "age, ",
  "7098": "outh ",
  "7099": "age\n",
  "7100": "laid ",
  "7101": "negative ",
  "7102": "avoid",
  "7103": "analy",
  "7104": "here is ",
  "7105": "who have ",
  "7106": "\" and ",
  "7107": " their own",
  "7108": "god",
  "7109": "for the\n",
  "7110": "ical\n",
  "7111": "in Portuguese] ",
  "7112": "uer",
  "7113": "? - ",
  "7114": " telling ",
  "7115": "compromis",
  "7116": "I've been ",
  "7117": "wait",
  "7118": "half of ",
  "7119": "\nthat the ",
  "7120": "give you ",
  "7121": "lines",
  "7122": "truth ",
  "7123": "when a ",
  "7124": "Committ",
  "7125": "policies ",
  "7126": "pread ",
  "7127": "s. D",
  "7128": "a second ",
  "7129": "renew",
  "7130": "him to ",
  "7131": "er than the ",
  "7132": "also the ",
  "7133": "accessi",
  "7134": "outbreak",
  "7135": "shock",
  "7136": ". Okay, ",
  "7137": "ymptom",
  "7138": "special",
  "7139": ". Let's ",
  "7140": "chest",
  "7141": "usion",
  "7142": "fort ",
  "7143": "college ",
  "7144": "But the ",
  "7145": "us the ",
  "7146": "progress",
  "7147": "osystem",
  "7148": "using the ",
  "7149": "cutting ",
  "7150": "set of ",
  "7151": "estim",
  "7152": "a col",
  "7153": "over and ",
  "7154": "interact",
  "7155": "Clip",
  "7156": "companies",
  "7157": "on an ",
  "7158": "for an ",
  "7159": "commercial ",
  "7160": "behind the ",
  "7161": ". Here ",
  "7162": "e B",
  "7163": "Department of ",
  "7164": "candidate ",
  "7165": "e said ",
  "7166": "cart",
  "7167": "ey\n",
  "7168": "y's ",
  "7169": "all, ",
  "7170": "fuel ",
  "7171": "I'm s",
  "7172": "Park",
  "7173": "dynam",
  "7174": "whatever",
  "7175": "is and ",
  "7176": " truck",
  "7177": "motion",
  "7178": " week",
  "7179": "is going to ",
  "7180": "explan",
  "7181": "ft",
  "7182": "lu",
  "7183": "stream ",
  "7184": "print ",
  "7185": "a law",
  "7186": "ings, ",
  "7187": "rapid",
  "7188": "Span",
  "7189": "background",
  "7190": "talk ",
  "7191": "easy",
  "7192": "otyp",
  "7193": "write ",
  "7194": "insul",
  "7195": "rub",
  "7196": "y in ",
  "7197": "about this",
  "7198": "your ey",
  "7199": "y\u2019s ",
  "7200": "Bill ",
  "7201": "message ",
  "7202": "ower ",
  "7203": "ole",
  "7204": "RE",
  "7205": "Taliban ",
  "7206": "Bernie Sand",
  "7207": "Colomb",
  "7208": "how you ",
  "7209": "we'll ",
  "7210": "paper ",
  "7211": "into this ",
  "7212": ". A s",
  "7213": "Every",
  "7214": "just one ",
  "7215": "China's ",
  "7216": "cand",
  "7217": "minist",
  "7218": "Internet ",
  "7219": "editor",
  "7220": "sky",
  "7221": "perman",
  "7222": "times ",
  "7223": "able and ",
  "7224": "emotion",
  "7225": "eth ",
  "7226": "irst ",
  "7227": "sense",
  "7228": "ure\n",
  "7229": " became ",
  "7230": "Di",
  "7231": " trend",
  "7232": "very much ",
  "7233": "Air",
  "7234": "I think the ",
  "7235": "Japanese ",
  "7236": "grant",
  "7237": "immigration ",
  "7238": "mayb",
  "7239": "represents ",
  "7240": "card ",
  "7241": ".\u201d\n",
  "7242": "Wal",
  "7243": "landsc",
  "7244": "Google ",
  "7245": "controversi",
  "7246": "rong",
  "7247": "yes",
  "7248": "beach",
  "7249": "arket",
  "7250": ", that",
  "7251": "seem to ",
  "7252": "very, ",
  "7253": "ential ",
  "7254": " the sub",
  "7255": "helping ",
  "7256": "emic ",
  "7257": "airplan",
  "7258": " mot",
  "7259": "injur",
  "7260": " tradition",
  "7261": "edit",
  "7262": "ague ",
  "7263": "ous\n",
  "7264": "stak",
  "7265": "prosecut",
  "7266": "appropri",
  "7267": " creat",
  "7268": "en and ",
  "7269": "low-",
  "7270": "ana",
  "7271": "debt ",
  "7272": "35",
  "7273": "is really ",
  "7274": "precedent",
  "7275": "o\n",
  "7276": "cloud ",
  "7277": "Per",
  "7278": "Lab",
  "7279": "do with ",
  "7280": "or b",
  "7281": "white s",
  "7282": "e, they ",
  "7283": "polar",
  "7284": "IN",
  "7285": "inaug",
  "7286": "bite ",
  "7287": "or even ",
  "7288": "mand",
  "7289": " to see ",
  "7290": "contact ",
  "7291": "watching ",
  "7292": "-the-",
  "7293": "went",
  "7294": "stage ",
  "7295": "explo",
  "7296": "statement ",
  "7297": "uper ",
  "7298": "es... ",
  "7299": "put it ",
  "7300": " term ",
  "7301": "attacks ",
  "7302": "a system",
  "7303": "take ",
  "7304": "willing to ",
  "7305": "it of ",
  "7306": "University of ",
  "7307": "it just ",
  "7308": "used in ",
  "7309": "isc",
  "7310": "Ann",
  "7311": "constantly ",
  "7312": "don't have ",
  "7313": "told ",
  "7314": "ecosystem",
  "7315": ". Sh",
  "7316": "lower",
  "7317": "fres",
  "7318": "e. In ",
  "7319": " we can ",
  "7320": " types of ",
  "7321": "adapt",
  "7322": "nois",
  "7323": "easier to ",
  "7324": "foot ",
  "7325": "hearing ",
  "7326": "200 ",
  "7327": "slowly ",
  "7328": "Wil",
  "7329": "a different ",
  "7330": "except ",
  "7331": "tend",
  "7332": "window",
  "7333": "ately",
  "7334": "track",
  "7335": "service ",
  "7336": "pedestri",
  "7337": "s. I",
  "7338": "we can",
  "7339": "ation that ",
  "7340": "February ",
  "7341": ". When",
  "7342": ". In this ",
  "7343": "pandemic",
  "7344": "do this",
  "7345": "choos",
  "7346": "perfectly ",
  "7347": "icid",
  "7348": "added ",
  "7349": "chron",
  "7350": "skin ",
  "7351": "years ago ",
  "7352": "aries",
  "7353": "shooting ",
  "7354": "out, ",
  "7355": "iday ",
  "7356": "on it",
  "7357": " touch",
  "7358": "tions ",
  "7359": "myself",
  "7360": "today ",
  "7361": ", but the ",
  "7362": "Mil",
  "7363": "atal",
  "7364": "Ill",
  "7365": "Russians ",
  "7366": "Putin",
  "7367": "L ",
  "7368": "concent",
  "7369": "drum",
  "7370": "punish",
  "7371": "GM",
  "7372": "algorithm",
  "7373": "Gi",
  "7374": "Qaed",
  "7375": "you and ",
  "7376": "recru",
  "7377": "included ",
  "7378": "spok",
  "7379": "which are ",
  "7380": "won",
  "7381": "losing ",
  "7382": "making it ",
  "7383": "es, but ",
  "7384": "saying",
  "7385": "e school",
  "7386": "ously",
  "7387": "1990",
  "7388": "ers who ",
  "7389": "ling",
  "7390": "Taiw",
  "7391": "conduct",
  "7392": "deadly ",
  "7393": "lying ",
  "7394": "fascin",
  "7395": "s. But",
  "7396": " thanks ",
  "7397": "carry ",
  "7398": "identify ",
  "7399": "May",
  "7400": "Cor",
  "7401": "e. T",
  "7402": "offe",
  "7403": "verse",
  "7404": "I do",
  "7405": "together",
  "7406": ". Ar",
  "7407": "infrastructure ",
  "7408": "a sub",
  "7409": "less of ",
  "7410": "Europe ",
  "7411": "destruc",
  "7412": "?\u201d \u201c",
  "7413": " becom",
  "7414": "US, ",
  "7415": "partner",
  "7416": "destro",
  "7417": "versus ",
  "7418": "might not ",
  "7419": "tool",
  "7420": ". You know, ",
  "7421": "equal",
  "7422": "ream ",
  "7423": "plans ",
  "7424": "all over ",
  "7425": "e there",
  "7426": "as many ",
  "7427": "mer ",
  "7428": "ed to be ",
  "7429": "instanc",
  "7430": "e. F",
  "7431": "fat ",
  "7432": "dos",
  "7433": "erb",
  "7434": "post ",
  "7435": "parts of ",
  "7436": "a human ",
  "7437": "it's just ",
  "7438": "where it ",
  "7439": "independent ",
  "7440": "draw ",
  "7441": "complicated",
  "7442": "seat",
  "7443": "events ",
  "7444": "ary, ",
  "7445": "secur",
  "7446": "declin",
  "7447": "ories ",
  "7448": "300",
  "7449": " mach",
  "7450": "fans ",
  "7451": "stad",
  "7452": "species ",
  "7453": "row ",
  "7454": "will b",
  "7455": "...\" ",
  "7456": "climb",
  "7457": "only\n",
  "7458": "rend",
  "7459": " song",
  "7460": "ment\n",
  "7461": "argument",
  "7462": "automat",
  "7463": "OU",
  "7464": ",</i> <i>",
  "7465": "hack",
  "7466": "extra",
  "7467": "Sal",
  "7468": "account ",
  "7469": "from m",
  "7470": " taxes ",
  "7471": "me to ",
  "7472": "e three ",
  "7473": "ision ",
  "7474": "eries ",
  "7475": "een",
  "7476": "y. The ",
  "7477": "example, ",
  "7478": "in 197",
  "7479": " went ",
  "7480": " turned ",
  "7481": "core ",
  "7482": "disease ",
  "7483": "context",
  "7484": "ster",
  "7485": "a long ",
  "7486": "more of ",
  "7487": "closed ",
  "7488": "inside the ",
  "7489": "nal ",
  "7490": "int of ",
  "7491": "atter ",
  "7492": "b ",
  "7493": "buildings ",
  "7494": "called a ",
  "7495": "create a ",
  "7496": "istric",
  "7497": "from c",
  "7498": "needs ",
  "7499": "Israeli",
  "7500": "dollars ",
  "7501": "notice ",
  "7502": "it turns out",
  "7503": "embr",
  "7504": "ocial",
  "7505": "allianc",
  "7506": "present ",
  "7507": "nov",
  "7508": "has been",
  "7509": "expect ",
  "7510": "ed by a ",
  "7511": "guarante",
  "7512": "a-",
  "7513": " better ",
  "7514": "and there's ",
  "7515": "T ",
  "7516": "uk",
  "7517": "strugg",
  "7518": "last year",
  "7519": "protest ",
  "7520": "believe that ",
  "7521": "examin",
  "7522": " tells ",
  "7523": "aint ",
  "7524": "y. And ",
  "7525": "agreement",
  "7526": "lead to ",
  "7527": "a sense of ",
  "7528": "released ",
  "7529": ". Americ",
  "7530": "stere",
  "7531": "version of ",
  "7532": "did you ",
  "7533": "ypt",
  "7534": "itarian ",
  "7535": "central ",
  "7536": "oman",
  "7537": "ocument",
  "7538": "it that ",
  "7539": "block ",
  "7540": "criminal ",
  "7541": "percent of the ",
  "7542": "Syria",
  "7543": "unus",
  "7544": " to the\n",
  "7545": "worry ",
  "7546": "moder",
  "7547": "chedul",
  "7548": "ouldn\u2019t ",
  "7549": "we had ",
  "7550": ". It\u2019s a ",
  "7551": "something\n",
  "7552": "you\u2019r",
  "7553": " those\n",
  "7554": "every\n",
  "7555": "nom",
  "7556": "make sure that ",
  "7557": "into\n",
  "7558": "a histor",
  "7559": "escap",
  "7560": "stretch",
  "7561": "vac",
  "7562": "flying ",
  "7563": "need to be ",
  "7564": "surfac",
  "7565": "interested in ",
  "7566": "place",
  "7567": "arrang",
  "7568": "fell ",
  "7569": "kel",
  "7570": "glass ",
  "7571": "replace ",
  "7572": ", though",
  "7573": "ic, ",
  "7574": "budget ",
  "7575": " this is the ",
  "7576": "climat",
  "7577": "difficult to ",
  "7578": "effectiv",
  "7579": "blow",
  "7580": "aware ",
  "7581": "very very ",
  "7582": "about it ",
  "7583": "a was ",
  "7584": "standing ",
  "7585": "23",
  "7586": "profit ",
  "7587": "photos",
  "7588": "speech",
  "7589": "oppon",
  "7590": "e. And",
  "7591": "edy ",
  "7592": "ing, but ",
  "7593": "what makes ",
  "7594": "it. The ",
  "7595": " those s",
  "7596": "and you ",
  "7597": "25 ",
  "7598": "do not ",
  "7599": " trip",
  "7600": "cel",
  "7601": " traffic",
  "7602": ". It's the ",
  "7603": "here\u2019s ",
  "7604": "prote",
  "7605": "400",
  "7606": ". There is ",
  "7607": "increase ",
  "7608": "'ll be ",
  "7609": "meaning",
  "7610": "in fact ",
  "7611": "stories",
  "7612": "ohn",
  "7613": "required ",
  "7614": "odd",
  "7615": "ger",
  "7616": "wag",
  "7617": "it's like ",
  "7618": ". \"The ",
  "7619": "ouse ",
  "7620": "just as ",
  "7621": "e women ",
  "7622": ". In fact, ",
  "7623": "rebel",
  "7624": "agreement ",
  "7625": "parad",
  "7626": "reef",
  "7627": "understand the ",
  "7628": "syn",
  "7629": "Tok",
  "7630": ". Right ",
  "7631": "bath",
  "7632": ". But in ",
  "7633": "urpris",
  "7634": "angr",
  "7635": "forens",
  "7636": "IV",
  "7637": "ed\nby ",
  "7638": "like, \"",
  "7639": "ment, ",
  "7640": "( ",
  "7641": "Care ",
  "7642": "osaur",
  "7643": "on's ",
  "7644": "pian",
  "7645": "a cr",
  "7646": "ed? ",
  "7647": "I really ",
  "7648": "Federal ",
  "7649": ". After the ",
  "7650": "suddenly ",
  "7651": "a car",
  "7652": "earlier ",
  "7653": "March ",
  "7654": "de ",
  "7655": "batt",
  "7656": "propag",
  "7657": "s of\n",
  "7658": "revers",
  "7659": "consc",
  "7660": "earing ",
  "7661": "fold",
  "7662": " twice ",
  "7663": "\nthan",
  "7664": "depress",
  "7665": " we've ",
  "7666": "up to the ",
  "7667": "66",
  "7668": "following ",
  "7669": "hid",
  "7670": "otherw",
  "7671": "awes",
  "7672": "-year-",
  "7673": "so, ",
  "7674": "creating ",
  "7675": "below",
  "7676": "in som",
  "7677": "scale ",
  "7678": " caus",
  "7679": "understanding ",
  "7680": "holding ",
  "7681": "necessary ",
  "7682": ", there are ",
  "7683": "a large ",
  "7684": "Japan ",
  "7685": "a year ",
  "7686": "ate c",
  "7687": "produced ",
  "7688": "e something ",
  "7689": "rule ",
  "7690": ". Ch",
  "7691": "es from ",
  "7692": "broke ",
  "7693": "sense ",
  "7694": "or w",
  "7695": "ost of ",
  "7696": "bed",
  "7697": "distance ",
  "7698": "s, like ",
  "7699": "Vall",
  "7700": "preserv",
  "7701": "when he ",
  "7702": "Chicago ",
  "7703": " they would ",
  "7704": "e spe",
  "7705": " short",
  "7706": "eal",
  "7707": "represent ",
  "7708": "seems to ",
  "7709": "Because ",
  "7710": "how s",
  "7711": "acknowledg",
  "7712": "a hug",
  "7713": "aqu",
  "7714": "lin ",
  "7715": "es that are ",
  "7716": "Lat",
  "7717": "sit ",
  "7718": " typically ",
  "7719": "one thing ",
  "7720": "in those ",
  "7721": "oon ",
  "7722": "s of thousand",
  "7723": "raise ",
  "7724": "oup",
  "7725": "Do",
  "7726": "chemical ",
  "7727": "a lot of people ",
  "7728": "million ",
  "7729": "problem is ",
  "7730": "iously",
  "7731": "MP",
  "7732": "universal ",
  "7733": "s, and",
  "7734": "isn\u2019t",
  "7735": ".' ",
  "7736": "BM",
  "7737": "elescop",
  "7738": " cod",
  "7739": "playing )",
  "7740": ",</i> <i> ",
  "7741": "leo",
  "7742": " music",
  "7743": "audience ",
  "7744": "began",
  "7745": "used to",
  "7746": "we want to ",
  "7747": "\nfor the ",
  "7748": "Peopl",
  "7749": "compared to ",
  "7750": "army ",
  "7751": "controlled ",
  "7752": "mountain",
  "7753": "set up ",
  "7754": "competition",
  "7755": " continu",
  "7756": "identity ",
  "7757": "esc",
  "7758": " tons of ",
  "7759": "? L",
  "7760": "use to ",
  "7761": " that has ",
  "7762": "ated by ",
  "7763": "showed ",
  "7764": "e there are ",
  "7765": "specifically ",
  "7766": "have no ",
  "7767": "me that ",
  "7768": "improve ",
  "7769": "implement",
  "7770": "lack of ",
  "7771": "and that",
  "7772": " sub",
  "7773": "acting ",
  "7774": "If you ",
  "7775": "resent",
  "7776": "if you",
  "7777": "Civil ",
  "7778": "re you ",
  "7779": "opportunity to ",
  "7780": "pitch",
  "7781": "chose ",
  "7782": "justice ",
  "7783": " weeks ",
  "7784": "convention",
  "7785": ". You know",
  "7786": "Gold",
  "7787": "one is ",
  "7788": "America's ",
  "7789": "out that ",
  "7790": "punch",
  "7791": "you the ",
  "7792": "perm",
  "7793": "driven ",
  "7794": "travel",
  "7795": "volunt",
  "7796": "production ",
  "7797": "choice ",
  "7798": "mechan",
  "7799": "s\nin the ",
  "7800": " their own ",
  "7801": "th and ",
  "7802": "increased ",
  "7803": "\nthis",
  "7804": "but that ",
  "7805": "Ros",
  "7806": "missing ",
  "7807": "course ",
  "7808": "tow",
  "7809": "ural",
  "7810": "And then ",
  "7811": "Green ",
  "7812": "sett",
  "7813": "cienc",
  "7814": "scene ",
  "7815": "all those ",
  "7816": "Middle East",
  "7817": "moved ",
  "7818": "crop",
  "7819": "y\nand ",
  "7820": "everyth",
  "7821": "Republicans",
  "7822": "stitution ",
  "7823": "pir",
  "7824": "called\n",
  "7825": "map ",
  "7826": "aug",
  "7827": "won\u2019t ",
  "7828": "on\nthe ",
  "7829": "couldn\u2019t ",
  "7830": "s to\n",
  "7831": "over\n",
  "7832": "outbreak ",
  "7833": "9/",
  "7834": "uerto ",
  "7835": "faith",
  "7836": "emat",
  "7837": "a mess",
  "7838": "role ",
  "7839": "I mean, ",
  "7840": "mol",
  "7841": "again, ",
  "7842": "spon",
  "7843": "obvious ",
  "7844": "Rev",
  "7845": "uzz",
  "7846": "became the ",
  "7847": " shows ",
  "7848": "cruc",
  "7849": "2017",
  "7850": " makes ",
  "7851": "alone",
  "7852": "45",
  "7853": ". Bas",
  "7854": "until the ",
  "7855": "philos",
  "7856": "orders ",
  "7857": "Vide",
  "7858": " the other ",
  "7859": "ource ",
  "7860": "sexual ",
  "7861": "patch",
  "7862": "liqu",
  "7863": "rush",
  "7864": "s. C",
  "7865": " time and ",
  "7866": "Ber",
  "7867": "breaking ",
  "7868": "attend",
  "7869": "New York Tim",
  "7870": "Harv",
  "7871": "install",
  "7872": ". Instead of ",
  "7873": "team",
  "7874": "get\n",
  "7875": "given",
  "7876": "ization ",
  "7877": "ourish",
  "7878": "have",
  "7879": " tast",
  "7880": "before",
  "7881": "including the ",
  "7882": "Palestinian ",
  "7883": "please ",
  "7884": "value ",
  "7885": ". Over the ",
  "7886": "ing more ",
  "7887": "e that\u2019s ",
  "7888": "channel",
  "7889": "for that",
  "7890": "Germany",
  "7891": "school ",
  "7892": "Mart",
  "7893": "appeal",
  "7894": "were the ",
  "7895": "s at ",
  "7896": "er,\n",
  "7897": "tell",
  "7898": "xim",
  "7899": "if you w",
  "7900": "capital ",
  "7901": "as you ",
  "7902": ". That was ",
  "7903": "er that ",
  "7904": "al of ",
  "7905": "izz",
  "7906": "season",
  "7907": "sport ",
  "7908": "ions are ",
  "7909": "s into ",
  "7910": "forever",
  "7911": "democracy ",
  "7912": "send",
  "7913": "people with ",
  "7914": "iec",
  "7915": "you can se",
  "7916": "icol",
  "7917": " something",
  "7918": "moon",
  "7919": ", like, ",
  "7920": " direct",
  "7921": "ecurity ",
  "7922": ". Since ",
  "7923": "machine ",
  "7924": "ing\na ",
  "7925": "iest ",
  "7926": "electoral ",
  "7927": "sn",
  "7928": "ed of ",
  "7929": "agend",
  "7930": "Nat",
  "7931": ",\nthat ",
  "7932": "would\n",
  "7933": "ations of ",
  "7934": "LL",
  "7935": "how\n",
  "7936": "ers,\n",
  "7937": "nomine",
  "7938": "u.s. ",
  "7939": "Jackson",
  "7940": "in their",
  "7941": "All ",
  "7942": "we will ",
  "7943": "hate ",
  "7944": "a typ",
  "7945": "How ",
  "7946": "... that ",
  "7947": "more important",
  "7948": "eive ",
  "7949": "executive ",
  "7950": "did the ",
  "7951": "swe",
  "7952": ". The first ",
  "7953": "entr",
  "7954": "Central ",
  "7955": "reality",
  "7956": "stress",
  "7957": "shown",
  "7958": "es. So ",
  "7959": "brought",
  "7960": "forced ",
  "7961": "forced to ",
  "7962": ". As the ",
  "7963": "away from",
  "7964": "anyth",
  "7965": "construction",
  "7966": "World War II",
  "7967": "ulture",
  "7968": "$1",
  "7969": "ation to ",
  "7970": "movies",
  "7971": "statement",
  "7972": "length",
  "7973": "become a ",
  "7974": ". Mean",
  "7975": " translat",
  "7976": "a bre",
  "7977": "ane",
  "7978": "been the ",
  "7979": "Oc",
  "7980": "car ",
  "7981": "because it's ",
  "7982": "icks ",
  "7983": "acted ",
  "7984": ". Where ",
  "7985": "lowest ",
  "7986": "ic and ",
  "7987": "he is ",
  "7988": "next to ",
  "7989": "I said",
  "7990": ". There",
  "7991": "lever",
  "7992": "male ",
  "7993": "page ",
  "7994": "ennsy",
  "7995": ". We\u2019re ",
  "7996": "s out ",
  "7997": " text",
  "7998": ". Imag",
  "7999": "despit",
  "8000": "we know ",
  "8001": "culture",
  "8002": "employe",
  "8003": "a half",
  "8004": "Del",
  "8005": " day ",
  "8006": "rar",
  "8007": "intend",
  "8008": " traff",
  "8009": "neighborhood ",
  "8010": "piece ",
  "8011": "aught",
  "8012": "Iow",
  "8013": "it\u2019s a ",
  "8014": "s. You ",
  "8015": "racist ",
  "8016": "available ",
  "8017": "ia and ",
  "8018": "similar ",
  "8019": "district ",
  "8020": "oft ",
  "8021": "with an ",
  "8022": "immigration",
  "8023": "navig",
  "8024": "both sid",
  "8025": "usion ",
  "8026": "hospital ",
  "8027": "speak ",
  "8028": "Russian",
  "8029": "epid",
  "8030": " control",
  "8031": "Covid-",
  "8032": "breed",
  "8033": "any\n",
  "8034": "s. It\u2019s ",
  "8035": "some\n",
  "8036": "El ",
  "8037": ", they\n",
  "8038": "DN",
  "8039": "Afford",
  "8040": "Trump is ",
  "8041": "Comey ",
  "8042": "going to\n",
  "8043": "but\n",
  "8044": ". Se",
  "8045": " thing that ",
  "8046": "continued to ",
  "8047": "journey ",
  "8048": "officially ",
  "8049": "rest of ",
  "8050": "leaving ",
  "8051": "propagand",
  "8052": "get that ",
  "8053": "outside of ",
  "8054": " memb",
  "8055": "spot ",
  "8056": " cor",
  "8057": "reput",
  "8058": "ky ",
  "8059": "viral ",
  "8060": "humans",
  "8061": "ferenc",
  "8062": "hydro",
  "8063": "wave ",
  "8064": "cameras ",
  "8065": "pocket",
  "8066": "tran",
  "8067": "coal",
  "8068": "fashion",
  "8069": "such a ",
  "8070": "guys",
  "8071": " doesn't ",
  "8072": "s, or ",
  "8073": "ing their",
  "8074": "filmmak",
  "8075": "ancient ",
  "8076": "related ",
  "8077": "500 ",
  "8078": "Haw",
  "8079": " ben",
  "8080": "wrot",
  "8081": "a hand",
  "8082": "? It ",
  "8083": "others",
  "8084": "Nix",
  "8085": "I'll ",
  "8086": "raised ",
  "8087": "s was ",
  "8088": "near the ",
  "8089": " the only ",
  "8090": "it was a ",
  "8091": "ready to ",
  "8092": "beautiful ",
  "8093": "illustr",
  "8094": "affordable ",
  "8095": "ridicul",
  "8096": "s from the ",
  "8097": "ion that ",
  "8098": "Amazon ",
  "8099": "efficient",
  "8100": "pok",
  "8101": "Sant",
  "8102": ". From",
  "8103": "boat",
  "8104": "was to ",
  "8105": "wanted ",
  "8106": "accurate ",
  "8107": " testing ",
  "8108": "reject",
  "8109": "uals ",
  "8110": "op ",
  "8111": "independenc",
  "8112": "rific",
  "8113": "situation",
  "8114": "scientist",
  "8115": "stadium",
  "8116": "taking ",
  "8117": "B ",
  "8118": "Ju",
  "8119": "folk",
  "8120": "I wanted to ",
  "8121": "Eg",
  "8122": "status ",
  "8123": "armed ",
  "8124": "attention ",
  "8125": "clock",
  "8126": "will s",
  "8127": "latest ",
  "8128": "is very ",
  "8129": "a bad ",
  "8130": "flash",
  "8131": "ester",
  "8132": "on our ",
  "8133": "got a ",
  "8134": "it's\n",
  "8135": "analyz",
  "8136": "ifying ",
  "8137": "learning ",
  "8138": "Islamic ",
  "8139": "nation ",
  "8140": "or to ",
  "8141": "memory ",
  "8142": "\"The ",
  "8143": "Twitter ",
  "8144": "\u0101or",
  "8145": "bird",
  "8146": "get it ",
  "8147": "speed ",
  "8148": "listen to ",
  "8149": "extinc",
  "8150": "attach",
  "8151": "ers: ",
  "8152": "ield",
  "8153": "like an ",
  "8154": "CH",
  "8155": "igar",
  "8156": "igarett",
  "8157": "</i>",
  "8158": ".\nThe ",
  "8159": "uerto Ric",
  "8160": "Medicaid ",
  "8161": "Now, ",
  "8162": "ook, ",
  "8163": "soon",
  "8164": "apprec",
  "8165": "at the\n",
  "8166": "alty ",
  "8167": "e cr",
  "8168": ". Well, ",
  "8169": "apping ",
  "8170": "ooth",
  "8171": "lege ",
  "8172": "you're not ",
  "8173": "\n\u201c",
  "8174": "e. We ",
  "8175": "help us ",
  "8176": "how did ",
  "8177": "fad",
  "8178": "leadership",
  "8179": "years later, ",
  "8180": "Chines",
  "8181": "i s",
  "8182": "height ",
  "8183": "members ",
  "8184": "ahead ",
  "8185": "ality",
  "8186": "historical ",
  "8187": "s. When ",
  "8188": "ed. So ",
  "8189": ". Re",
  "8190": "cens",
  "8191": ". I mean",
  "8192": "remark",
  "8193": "I feel ",
  "8194": "description",
  "8195": "according to ",
  "8196": "no matter ",
  "8197": "subject",
  "8198": "is also ",
  "8199": "a million ",
  "8200": "absor",
  "8201": "s as ",
  "8202": " the sun",
  "8203": "es\nof ",
  "8204": "veget",
  "8205": ", they were ",
  "8206": "olf",
  "8207": "Hollywood ",
  "8208": "\nby ",
  "8209": "letter ",
  "8210": "Lif",
  "8211": "like these ",
  "8212": "release ",
  "8213": "bacter",
  "8214": "proportion",
  "8215": " military ",
  "8216": "arbon",
  "8217": "Met",
  "8218": "nice ",
  "8219": "afety ",
  "8220": "buying ",
  "8221": "costs ",
  "8222": "\nmore ",
  "8223": "survey",
  "8224": ".\" But ",
  "8225": "is what ",
  "8226": " too much",
  "8227": " they'd ",
  "8228": "safe",
  "8229": "liz",
  "8230": "e. I ",
  "8231": "being a ",
  "8232": " talked ",
  "8233": "along with ",
  "8234": "evit",
  "8235": "unk ",
  "8236": "burg",
  "8237": " throw",
  "8238": "it could ",
  "8239": "in a c",
  "8240": "Northern ",
  "8241": "fairly ",
  "8242": "ennsyl",
  "8243": "New York City ",
  "8244": "fab",
  "8245": "packag",
  "8246": "king",
  "8247": "just about ",
  "8248": "e seeing ",
  "8249": "es have ",
  "8250": "one-",
  "8251": "subsid",
  "8252": "global w",
  "8253": "ready ",
  "8254": " the scen",
  "8255": "wear ",
  "8256": ", those ",
  "8257": "\nhas ",
  "8258": "conservativ",
  "8259": "country's ",
  "8260": "decision ",
  "8261": "in the last ",
  "8262": " bo",
  "8263": "MS",
  "8264": "mainstream",
  "8265": "changed the ",
  "8266": "books ",
  "8267": "was that ",
  "8268": "makes",
  "8269": "in which ",
  "8270": "rev",
  "8271": "families",
  "8272": "flu ",
  "8273": "making the ",
  "8274": "it takes ",
  "8275": "be, ",
  "8276": "Victor",
  "8277": "pill",
  "8278": ", who ",
  "8279": ",\nth",
  "8280": "opposit",
  "8281": "stood ",
  "8282": "German",
  "8283": "escal",
  "8284": "do, ",
  "8285": "citizen",
  "8286": "missil",
  "8287": "black and ",
  "8288": "es\nthat ",
  "8289": "measure ",
  "8290": "e that they ",
  "8291": "gal",
  "8292": "ations, ",
  "8293": "hunt",
  "8294": "yellow",
  "8295": "really really ",
  "8296": "haven\u2019t ",
  "8297": "don\u2019t",
  "8298": "even\n",
  "8299": "worse",
  "8300": "terror",
  "8301": "god ",
  "8302": "oute ",
  "8303": "hipp",
  "8304": "Kur",
  "8305": "ISIS ",
  "8306": "C: ",
  "8307": "E ",
  "8308": "Thank ",
  "8309": "millions ",
  "8310": "ony",
  "8311": "amend",
  "8312": "lap",
  "8313": "Gam",
  "8314": "pursu",
  "8315": "decisions ",
  "8316": "dee",
  "8317": " country",
  "8318": "China, ",
  "8319": "e. He ",
  "8320": " we have ",
  "8321": ". Thanks ",
  "8322": "finding ",
  "8323": "ate that ",
  "8324": "replic",
  "8325": "ating\n",
  "8326": "for watching",
  "8327": "things that ",
  "8328": "enforcement ",
  "8329": "edical ",
  "8330": "lip ",
  "8331": "it. But ",
  "8332": "plent",
  "8333": "devic",
  "8334": "atom",
  "8335": ". It's",
  "8336": "partn",
  "8337": "s. And",
  "8338": "earthqu",
  "8339": "pel",
  "8340": "afe ",
  "8341": "jok",
  "8342": "primarily ",
  "8343": "of course, ",
  "8344": "a million",
  "8345": "when you're ",
  "8346": "it also ",
  "8347": "strip",
  "8348": "meat ",
  "8349": "focusing ",
  "8350": "yourself ",
  "8351": "ler ",
  "8352": "remot",
  "8353": "at the time ",
  "8354": "equal ",
  "8355": "link ",
  "8356": "ain the ",
  "8357": "cold ",
  "8358": "conclus",
  "8359": "s. He ",
  "8360": "Coun",
  "8361": "it's been ",
  "8362": "fill ",
  "8363": ",\nthey ",
  "8364": "Star ",
  "8365": "films ",
  "8366": "hill",
  "8367": "opportunity ",
  "8368": "Sept",
  "8369": "unlike ",
  "8370": "Tom",
  "8371": "dial",
  "8372": "er. And ",
  "8373": "leak",
  "8374": "s, it ",
  "8375": " train ",
  "8376": "After ",
  "8377": "hour ",
  "8378": "AI ",
  "8379": "ers like ",
  "8380": "one of",
  "8381": "up\n",
  "8382": "such",
  "8383": "gar",
  "8384": "ope ",
  "8385": "April ",
  "8386": " try ",
  "8387": "Sat",
  "8388": "ed\nin ",
  "8389": "y, but ",
  "8390": "begin ",
  "8391": "rat ",
  "8392": "ended up",
  "8393": "artific",
  "8394": "drink",
  "8395": "belief",
  "8396": "narrow",
  "8397": "sitting ",
  "8398": "good at ",
  "8399": "18 ",
  "8400": " major",
  "8401": "one was ",
  "8402": "er: ",
  "8403": "adjust",
  "8404": "antibiot",
  "8405": "innoc",
  "8406": "Fox",
  "8407": "pictures",
  "8408": "umin",
  "8409": "NATO",
  "8410": "propert",
  "8411": "find out ",
  "8412": "2014",
  "8413": "product ",
  "8414": " shot",
  "8415": "ared ",
  "8416": "Qat",
  "8417": "Sch",
  "8418": "if you\u2019re ",
  "8419": "afric",
  "8420": "gin",
  "8421": "\u2014 but ",
  "8422": "immigrants ",
  "8423": "Christophe",
  "8424": " therap",
  "8425": "mistak",
  "8426": "dedic",
  "8427": "Hey, ",
  "8428": "anna ",
  "8429": "Commun",
  "8430": " sign",
  "8431": " to have ",
  "8432": "es\nand ",
  "8433": "charge ",
  "8434": " total ",
  "8435": "e. On",
  "8436": "advantage ",
  "8437": "remain ",
  "8438": "commit",
  "8439": "established ",
  "8440": "Ebol",
  "8441": "India",
  "8442": "oler",
  "8443": "we think ",
  "8444": "abol",
  "8445": "affect ",
  "8446": "of an ",
  "8447": "point of ",
  "8448": "enormous ",
  "8449": "Co",
  "8450": "emor",
  "8451": " sound",
  "8452": "park ",
  "8453": "e! ",
  "8454": "everywhere ",
  "8455": "ure to ",
  "8456": "alt",
  "8457": "May ",
  "8458": "proposed ",
  "8459": "somewhere ",
  "8460": "assault",
  "8461": " dep",
  "8462": "flat ",
  "8463": ". So this ",
  "8464": "learned ",
  "8465": "conven",
  "8466": "figured ",
  "8467": " was a ",
  "8468": "came from ",
  "8469": "enry ",
  "8470": "vision ",
  "8471": "enter ",
  "8472": "\nlike ",
  "8473": "hus",
  "8474": ". Then",
  "8475": "years and ",
  "8476": " bel",
  "8477": "you know the ",
  "8478": ". According to ",
  "8479": "e thought",
  "8480": "growth ",
  "8481": "favorit",
  "8482": "intens",
  "8483": "cars ",
  "8484": "Union ",
  "8485": "suit",
  "8486": ". Take ",
  "8487": "hase ",
  "8488": "accounts ",
  "8489": "every day",
  "8490": "waste ",
  "8491": " training ",
  "8492": "safety ",
  "8493": "World War I",
  "8494": "explic",
  "8495": "beauty ",
  "8496": " didn't ",
  "8497": "classified ",
  "8498": "I thought ",
  "8499": "? A",
  "8500": "psycholog",
  "8501": "lax",
  "8502": "living in ",
  "8503": "ury ",
  "8504": "money to ",
  "8505": "game",
  "8506": "vil",
  "8507": "Ry",
  "8508": "spending ",
  "8509": "fant",
  "8510": "grew",
  "8511": "stack",
  "8512": "post-",
  "8513": "remendous ",
  "8514": "align",
  "8515": "Jerusalem",
  "8516": "moral ",
  "8517": "ly to ",
  "8518": "repet",
  "8519": "Dut",
  "8520": "Philipp",
  "8521": "intelligenc",
  "8522": "s,\nand ",
  "8523": "vaccines ",
  "8524": "M\u0101or",
  "8525": " miss",
  "8526": "dangerous",
  "8527": ", and\n",
  "8528": "paw",
  "8529": "sick",
  "8530": "playing )</i> ",
  "8531": "( music ",
  "8532": "ated to ",
  "8533": "not that ",
  "8534": "depart",
  "8535": "me and ",
  "8536": "No, ",
  "8537": "agree ",
  "8538": " this, ",
  "8539": "year old ",
  "8540": "ircl",
  "8541": "of course",
  "8542": "... to ",
  "8543": " cond",
  "8544": " testim",
  "8545": "pattern ",
  "8546": "shoot ",
  "8547": "everybody",
  "8548": "\nwho ",
  "8549": "two",
  "8550": "alist ",
  "8551": "elect ",
  "8552": "olution ",
  "8553": "fath",
  "8554": ". Any",
  "8555": "umstanc",
  "8556": "credi",
  "8557": "ers that ",
  "8558": "bell",
  "8559": "features ",
  "8560": ". Their ",
  "8561": "Native ",
  "8562": "happens",
  "8563": "weight",
  "8564": "pas",
  "8565": "ing through",
  "8566": "explod",
  "8567": "ure the ",
  "8568": "experiment ",
  "8569": "ing from ",
  "8570": ". This",
  "8571": "bridg",
  "8572": "height",
  "8573": "tre",
  "8574": "dozens of ",
  "8575": "museum",
  "8576": "I will",
  "8577": "always",
  "8578": "emotional ",
  "8579": "quick ",
  "8580": "27",
  "8581": "ounce ",
  "8582": "s. This is ",
  "8583": "anyway",
  "8584": "effects ",
  "8585": "additional ",
  "8586": "Distric",
  "8587": ". So what ",
  "8588": "results ",
  "8589": "so far",
  "8590": ". Like, ",
  "8591": "effectively ",
  "8592": "shel",
  "8593": "dang",
  "8594": "cash",
  "8595": "a co",
  "8596": "shows the ",
  "8597": "most important",
  "8598": ". A lot ",
  "8599": "drug ",
  "8600": "you had ",
  "8601": " things",
  "8602": "attor",
  "8603": "July ",
  "8604": "homes ",
  "8605": "acqu",
  "8606": "ones that ",
  "8607": " thanks to ",
  "8608": " thing to ",
  "8609": "ennsylvan",
  "8610": "on C",
  "8611": "ines",
  "8612": "slightly ",
  "8613": " that's not ",
  "8614": "sleep ",
  "8615": "made\n",
  "8616": "appar",
  "8617": "upport ",
  "8618": "weigh",
  "8619": ". Here's ",
  "8620": "home to ",
  "8621": "as much as ",
  "8622": "for the s",
  "8623": "at all ",
  "8624": "s than ",
  "8625": "Queen ",
  "8626": "now the ",
  "8627": "ads ",
  "8628": " time\n",
  "8629": "farmer",
  "8630": "Tuck",
  "8631": "DR",
  "8632": " there's no ",
  "8633": "190",
  "8634": ". Is",
  "8635": "ray",
  "8636": "fine ",
  "8637": "The c",
  "8638": "highway",
  "8639": "aq",
  "8640": "daugh",
  "8641": "effort to ",
  "8642": ", you know",
  "8643": "used the ",
  "8644": "Fri",
  "8645": "ield ",
  "8646": "hang",
  "8647": "content",
  "8648": "vocal ",
  "8649": "could\n",
  "8650": "marg",
  "8651": "len",
  "8652": "quote ",
  "8653": "he could ",
  "8654": "land, ",
  "8655": "din",
  "8656": "filib",
  "8657": "an hour",
  "8658": "ittle\n",
  "8659": "deport",
  "8660": "probably\n",
  "8661": "radio",
  "8662": ",\" ",
  "8663": "athletes ",
  "8664": "Narrat",
  "8665": "Narrator] ",
  "8666": "conspiracy",
  "8667": " the president ",
  "8668": "ezuel",
  "8669": ".\nAnd ",
  "8670": "fenc",
  "8671": "ner: ",
  "8672": "Route ",
  "8673": "ordinary ",
  "8674": "You're ",
  "8675": ". - [",
  "8676": "obst",
  "8677": " to the s",
  "8678": "restor",
  "8679": "about that",
  "8680": "interesting",
  "8681": " there was a ",
  "8682": "ption ",
  "8683": "? \u201c",
  "8684": "fak",
  "8685": "northern ",
  "8686": ". Even",
  "8687": "parties",
  "8688": "solid",
  "8689": "ated the ",
  "8690": "co-",
  "8691": "ment and ",
  "8692": "agon",
  "8693": "electricity ",
  "8694": "s. T",
  "8695": "flag",
  "8696": "able s",
  "8697": "Instag",
  "8698": "This is the ",
  "8699": "felt",
  "8700": "zo",
  "8701": "ers. The ",
  "8702": "Ham",
  "8703": "jet ",
  "8704": "-based ",
  "8705": "almost",
  "8706": "we just ",
  "8707": "onom",
  "8708": "didn't",
  "8709": "16 ",
  "8710": "CEO",
  "8711": "ize the ",
  "8712": "climate change ",
  "8713": "matt",
  "8714": "perceiv",
  "8715": " this was ",
  "8716": "see it ",
  "8717": "suppos",
  "8718": "activists ",
  "8719": "er who ",
  "8720": "icip",
  "8721": "operation",
  "8722": "case, ",
  "8723": "accused ",
  "8724": "capac",
  "8725": "prime ",
  "8726": "aters ",
  "8727": "and this is ",
  "8728": " L",
  "8729": "micro",
  "8730": "babies ",
  "8731": "all the way ",
  "8732": "New York City",
  "8733": "ection ",
  "8734": "pandemic ",
  "8735": "pollution",
  "8736": "rein",
  "8737": "cook",
  "8738": "calcul",
  "8739": "femal",
  "8740": "it's really ",
  "8741": "Nav",
  "8742": "greater ",
  "8743": "e car",
  "8744": "ength ",
  "8745": "clin",
  "8746": " themselves",
  "8747": " they could ",
  "8748": "libr",
  "8749": "Bel",
  "8750": "proced",
  "8751": "people would ",
  "8752": "? S",
  "8753": "chick",
  "8754": "Bas",
  "8755": "1900",
  "8756": "games ",
  "8757": "Vir",
  "8758": "an\u2019s ",
  "8759": "one of those ",
  "8760": "Lore",
  "8761": "correct ",
  "8762": "yeah, ",
  "8763": "reading ",
  "8764": "orang",
  "8765": "out there",
  "8766": "e world ",
  "8767": "peace ",
  "8768": "called \"",
  "8769": "ially\n",
  "8770": "creates ",
  "8771": "and\nthe ",
  "8772": "Turkey ",
  "8773": "for these ",
  "8774": "incol",
  "8775": "supply ",
  "8776": "US and ",
  "8777": ", the US ",
  "8778": "no, ",
  "8779": " to their ",
  "8780": "regular ",
  "8781": "BB",
  "8782": "Hong Kong ",
  "8783": "general",
  "8784": "hell",
  "8785": "detain",
  "8786": "dipl",
  "8787": ", what ",
  "8788": ". Here\u2019s ",
  "8789": "Mad",
  "8790": "recess",
  "8791": "world\u2019s ",
  "8792": "ino",
  "8793": "Well ",
  "8794": "chrom",
  "8795": "Y: ",
  "8796": "healthcare ",
  "8797": "e came ",
  "8798": ". I s",
  "8799": "gotta ",
  "8800": " of the ",
  "8801": "owned ",
  "8802": "elcome ",
  "8803": "for example, ",
  "8804": "Fre",
  "8805": "stronger ",
  "8806": "currently ",
  "8807": "a littl",
  "8808": "I think that ",
  "8809": "efully ",
  "8810": "Red ",
  "8811": "\nwere ",
  "8812": "ics",
  "8813": "victory ",
  "8814": " tit",
  "8815": "ed from",
  "8816": "rule",
  "8817": "held",
  "8818": "rules",
  "8819": "s\nwere ",
  "8820": "ee",
  "8821": "ambit",
  "8822": "alive ",
  "8823": ". Res",
  "8824": "hidden ",
  "8825": "industrial ",
  "8826": "eez",
  "8827": "Rock",
  "8828": "gram",
  "8829": "Tit",
  "8830": "eline ",
  "8831": "eleph",
  "8832": "leave the ",
  "8833": " tank",
  "8834": "August ",
  "8835": "killing ",
  "8836": "widely ",
  "8837": "lack",
  "8838": "city of ",
  "8839": "successful",
  "8840": "things ",
  "8841": "focused on ",
  "8842": ". It's a ",
  "8843": "a half ",
  "8844": ". We can ",
  "8845": "unless ",
  "8846": "Jewish ",
  "8847": "Where ",
  "8848": "Gaz",
  "8849": "$2",
  "8850": "s the s",
  "8851": "exclus",
  "8852": "mine ",
  "8853": "e said",
  "8854": "developing ",
  "8855": "ether",
  "8856": "a to ",
  "8857": "depends ",
  "8858": "Research",
  "8859": "gain ",
  "8860": "civil rights ",
  "8861": "optim",
  "8862": " business",
  "8863": ". \u201cThe ",
  "8864": "town",
  "8865": "chos",
  "8866": "staff",
  "8867": "lev",
  "8868": "a te",
  "8869": "repeated",
  "8870": "math",
  "8871": " with\n",
  "8872": "in America",
  "8873": "plan to ",
  "8874": "property ",
  "8875": "it had ",
  "8876": "ers. And ",
  "8877": " cover",
  "8878": "brown ",
  "8879": "heat",
  "8880": ", and it ",
  "8881": " was to ",
  "8882": "kick ",
  "8883": "very, very ",
  "8884": "loud",
  "8885": " want to ",
  "8886": "longer",
  "8887": " tiny ",
  "8888": "science ",
  "8889": "having a ",
  "8890": "act of ",
  "8891": "probably the ",
  "8892": "stead",
  "8893": "wind ",
  "8894": "a has ",
  "8895": "assess",
  "8896": "advantag",
  "8897": "together ",
  "8898": "gall",
  "8899": "geograph",
  "8900": "ranch",
  "8901": "fif",
  "8902": "She ",
  "8903": "racism ",
  "8904": "involved in ",
  "8905": "e that was ",
  "8906": "a map",
  "8907": "Gover",
  "8908": "preh",
  "8909": "pollut",
  "8910": "cer",
  "8911": "Kh",
  "8912": ". Z",
  "8913": "Netfli",
  "8914": "opp",
  "8915": "14 ",
  "8916": "first\n",
  "8917": "going on",
  "8918": "puts ",
  "8919": "come from",
  "8920": "agreed to ",
  "8921": "exercis",
  "8922": "associated ",
  "8923": "ladim",
  "8924": " break",
  "8925": " to tak",
  "8926": "Twitter",
  "8927": "fisher",
  "8928": "recycl",
  "8929": "ideas",
  "8930": " the\u00a0\n",
  "8931": "abis ",
  "8932": "perspective ",
  "8933": "also\n",
  "8934": ", because ",
  "8935": "it\u2019s the ",
  "8936": "loop",
  "8937": "anx",
  "8938": "hasn\u2019t ",
  "8939": "[in Portuguese] ",
  "8940": "Fox News ",
  "8941": "emen",
  "8942": "Filip",
  "8943": "Affordable ",
  "8944": "rhym",
  "8945": "e through ",
  "8946": "Hell",
  "8947": "On ",
  "8948": ". It was a ",
  "8949": "for his ",
  "8950": "prohib",
  "8951": "ears ",
  "8952": " compet",
  "8953": "aband",
  "8954": "used to be ",
  "8955": "nine ",
  "8956": "deeply ",
  "8957": " they had ",
  "8958": "ing] ",
  "8959": "democratic ",
  "8960": "everyone",
  "8961": " degrees ",
  "8962": "intense ",
  "8963": "plain",
  "8964": "Western ",
  "8965": "nature ",
  "8966": "nick",
  "8967": "volum",
  "8968": "atmosphere ",
  "8969": "normally ",
  "8970": "for mon",
  "8971": "hatt",
  "8972": "a br",
  "8973": "show that ",
  "8974": "\nthey're ",
  "8975": "like thes",
  "8976": "screen ",
  "8977": "advent",
  "8978": "King",
  "8979": "Cath",
  "8980": "acre",
  "8981": "diox",
  "8982": ". Des",
  "8983": "solve ",
  "8984": "for every ",
  "8985": "limit ",
  "8986": "Pac",
  "8987": "culture ",
  "8988": " that that ",
  "8989": "ium ",
  "8990": "opening ",
  "8991": "better than ",
  "8992": "Pat",
  "8993": "had to be ",
  "8994": "making",
  "8995": "ourselves ",
  "8996": "embrac",
  "8997": "Your ",
  "8998": "necessar",
  "8999": "well, ",
  "9000": "actor",
  "9001": ". Peopl",
  "9002": "perhaps ",
  "9003": "June ",
  "9004": "Hollywood",
  "9005": "inter ",
  "9006": "cold",
  "9007": "cycl",
  "9008": " technology",
  "9009": "up in the ",
  "9010": "using",
  "9011": "boom",
  "9012": "rather ",
  "9013": " tell you",
  "9014": "of time ",
  "9015": "Right ",
  "9016": "assign",
  "9017": "eros",
  "9018": "e. D",
  "9019": "global warm",
  "9020": "paid",
  "9021": "football",
  "9022": "s. And the ",
  "9023": ". There's no ",
  "9024": "ference ",
  "9025": "most important ",
  "9026": "craft",
  "9027": " tick",
  "9028": "self-",
  "9029": " comes ",
  "9030": "are they ",
  "9031": "appear ",
  "9032": "e care ",
  "9033": "at some ",
  "9034": "An ",
  "9035": "bought ",
  "9036": " that's",
  "9037": "putt",
  "9038": "half the ",
  "9039": "ro ",
  "9040": "tried to ",
  "9041": ". Oh",
  "9042": "pray",
  "9043": "jump ",
  "9044": ". And I ",
  "9045": "GB",
  "9046": "irty ",
  "9047": " them and ",
  "9048": "Justice ",
  "9049": "really the ",
  "9050": "state, ",
  "9051": "refuge",
  "9052": "Mag",
  "9053": "worse ",
  "9054": "ten",
  "9055": "prompt",
  "9056": "myth",
  "9057": "date ",
  "9058": "bird ",
  "9059": " deb",
  "9060": "y: ",
  "9061": "poverty ",
  "9062": "our country ",
  "9063": "Stat",
  "9064": "e.\" \"",
  "9065": ", even ",
  "9066": "guy who ",
  "9067": " tweet",
  "9068": "rememb",
  "9069": "obl",
  "9070": "variety of ",
  "9071": "ballot ",
  "9072": "lets ",
  "9073": "rhythm",
  "9074": "stone ",
  "9075": "Frank ",
  "9076": "ison ",
  "9077": "middle cl",
  "9078": ". Let\u2019s ",
  "9079": "Wow",
  "9080": "y\nof ",
  "9081": "nuclear weapon",
  "9082": " threat ",
  "9083": "health insuranc",
  "9084": "Puerto Ric",
  "9085": "Venezuel",
  "9086": "Er",
  "9087": "Ezra Klein: ",
  "9088": "leve",
  "9089": ", but it ",
  "9090": "email ",
  "9091": "bottom",
  "9092": "ere, ",
  "9093": "bag",
  "9094": "committee ",
  "9095": "falling ",
  "9096": "ug ",
  "9097": "Bri",
  "9098": "rid of ",
  "9099": "publicly ",
  "9100": "line",
  "9101": "work in ",
  "9102": "s had ",
  "9103": "for many ",
  "9104": "der ",
  "9105": "ostly ",
  "9106": "Muslim ",
  "9107": "as long as ",
  "9108": "immune system",
  "9109": "journalists ",
  "9110": "yr",
  "9111": "decreas",
  "9112": "on Earth",
  "9113": "odi",
  "9114": "temperat",
  "9115": "Manhatt",
  "9116": "center ",
  "9117": "December ",
  "9118": "come in ",
  "9119": "featured ",
  "9120": "gentlem",
  "9121": "accompl",
  "9122": "MC",
  "9123": "makes the ",
  "9124": "ignificant ",
  "9125": "greenhouse ",
  "9126": ". And in ",
  "9127": "s of a ",
  "9128": "ons of ",
  "9129": "or in ",
  "9130": "Arab ",
  "9131": "in its ",
  "9132": "I love ",
  "9133": "ociety ",
  "9134": " benef",
  "9135": "is about ",
  "9136": "iol",
  "9137": "s. We ",
  "9138": "Canada",
  "9139": "prescription",
  "9140": "seemed ",
  "9141": "over the past ",
  "9142": " take a ",
  "9143": "olar ",
  "9144": "underne",
  "9145": "enator ",
  "9146": "for us",
  "9147": "irt ",
  "9148": "\nto be ",
  "9149": "resign",
  "9150": "fund ",
  "9151": "it as ",
  "9152": "\nyou ",
  "9153": "in 196",
  "9154": "uster",
  "9155": " money",
  "9156": "Ari",
  "9157": "clas",
  "9158": "...th",
  "9159": "du",
  "9160": "for my ",
  "9161": " minutes ",
  "9162": "X ",
  "9163": "when you",
  "9164": "Chicago",
  "9165": "Domin",
  "9166": "hi",
  "9167": "? Why ",
  "9168": "London",
  "9169": "crash",
  "9170": "2010",
  "9171": "find the ",
  "9172": "calling ",
  "9173": "make sure ",
  "9174": "people in the ",
  "9175": "Carl",
  "9176": "round ",
  "9177": "hurt",
  "9178": "comes from ",
  "9179": "ted ",
  "9180": "feels like ",
  "9181": "28",
  "9182": "FIF",
  "9183": "diagnos",
  "9184": "ed in a ",
  "9185": "cannot ",
  "9186": "for con",
  "9187": "places",
  "9188": "y. But ",
  "9189": "down and ",
  "9190": "noise ",
  "9191": "ed,",
  "9192": "displac",
  "9193": "protection",
  "9194": "useful",
  "9195": "what happened ",
  "9196": "pledg",
  "9197": "one thing",
  "9198": "minimum w",
  "9199": "how w",
  "9200": "ening ",
  "9201": "response",
  "9202": "could have ",
  "9203": "meeting ",
  "9204": "boost",
  "9205": "quality",
  "9206": "LE",
  "9207": "e. This is ",
  "9208": "just a few",
  "9209": ", an ",
  "9210": " trial",
  "9211": "flex",
  "9212": "is still ",
  "9213": "finger",
  "9214": " will be ",
  "9215": "South Kore",
  "9216": "wealth ",
  "9217": ". He",
  "9218": "be se",
  "9219": "struck ",
  "9220": "nature",
  "9221": "vice ",
  "9222": "Bol",
  "9223": "s who ",
  "9224": "arms ",
  "9225": "ed, the ",
  "9226": "harass",
  "9227": "Constitution",
  "9228": " then\n",
  "9229": ".\"\n",
  "9230": "e\u201d ",
  "9231": "cloud",
  "9232": "she\u2019s ",
  "9233": "having to ",
  "9234": "wouldn\u2019t ",
  "9235": ", not ",
  "9236": "national\n",
  "9237": "distr",
  "9238": "NF",
  "9239": ". OK",
  "9240": " they\u2019re\n",
  "9241": "white suprem",
  "9242": "Medicaid",
  "9243": "drinking ",
  "9244": "providing ",
  "9245": "clip",
  "9246": "Let's ",
  "9247": "elf-",
  "9248": " this tim",
  "9249": "omor",
  "9250": "ardi",
  "9251": "at hom",
  "9252": "time to ",
  "9253": "mission ",
  "9254": "wonder",
  "9255": "we're not ",
  "9256": " time. ",
  "9257": "March",
  "9258": "approach ",
  "9259": "pushed ",
  "9260": "march",
  "9261": "military",
  "9262": "Soviet Union",
  "9263": "s in a ",
  "9264": "wides",
  "9265": "ed him",
  "9266": "end up",
  "9267": "years later",
  "9268": "top of the ",
  "9269": "corruption",
  "9270": " campaign",
  "9271": "expert ",
  "9272": "despite ",
  "9273": "perpet",
  "9274": ". As a ",
  "9275": "wearing ",
  "9276": "by a ",
  "9277": "hair ",
  "9278": ". But what ",
  "9279": "exactly",
  "9280": "pressur",
  "9281": "arbon ",
  "9282": "further",
  "9283": "nerv",
  "9284": "er. The ",
  "9285": "really, ",
  "9286": "part of a ",
  "9287": "box ",
  "9288": " class",
  "9289": "Jes",
  "9290": "rever",
  "9291": " bill",
  "9292": ". Our ",
  "9293": "inher",
  "9294": ". Sometimes ",
  "9295": "ification",
  "9296": " cost",
  "9297": "steel",
  "9298": "education ",
  "9299": "overe",
  "9300": "floor ",
  "9301": "how this ",
  "9302": "robot",
  "9303": ". In a ",
  "9304": "s have been ",
  "9305": "on-",
  "9306": "voted ",
  "9307": "ine and ",
  "9308": "iconic ",
  "9309": "town ",
  "9310": "Health ",
  "9311": "provided ",
  "9312": "invest ",
  "9313": "conclud",
  "9314": "sports ",
  "9315": "fit",
  "9316": "Disney ",
  "9317": "reason why ",
  "9318": "have any ",
  "9319": "Angel",
  "9320": "were",
  "9321": "e they were ",
  "9322": "nothing to ",
  "9323": ". So I ",
  "9324": ". And this is ",
  "9325": "passenger ",
  "9326": "e cour",
  "9327": "icking ",
  "9328": "might have ",
  "9329": "partly ",
  "9330": "protected ",
  "9331": " tell us ",
  "9332": "player ",
  "9333": "ers in the ",
  "9334": "one of my ",
  "9335": "one to ",
  "9336": "significant ",
  "9337": ". And it\u2019s ",
  "9338": "we're going to ",
  "9339": "PA",
  "9340": "med ",
  "9341": "e this is ",
  "9342": "may have ",
  "9343": "birth ",
  "9344": "survive ",
  "9345": "doctors ",
  "9346": "required",
  "9347": "icide ",
  "9348": "and those ",
  "9349": "describe ",
  "9350": "bias",
  "9351": "So the ",
  "9352": "e, or ",
  "9353": "shift ",
  "9354": "age and ",
  "9355": "Spr",
  "9356": "e world",
  "9357": "ix ",
  "9358": "ican ",
  "9359": "for them to ",
  "9360": "help you ",
  "9361": "Becaus",
  "9362": "a real ",
  "9363": "basically",
  "9364": "eor",
  "9365": "esh",
  "9366": "version ",
  "9367": "eastern ",
  "9368": "Asian ",
  "9369": "has an ",
  "9370": "Bur",
  "9371": "expected to ",
  "9372": "upport",
  "9373": ". She's ",
  "9374": "November ",
  "9375": "Oscar",
  "9376": "deal with ",
  "9377": "judges ",
  "9378": "AD",
  "9379": "technolog",
  "9380": "ware ",
  "9381": "men and ",
  "9382": "moves ",
  "9383": "Barack ",
  "9384": "ogu",
  "9385": "Lincol",
  "9386": "photograp",
  "9387": "instrument",
  "9388": "brings ",
  "9389": "ant\n",
  "9390": "for the first tim",
  "9391": "genetic",
  "9392": " seem",
  "9393": "Vladim",
  "9394": "Depress",
  "9395": "e war",
  "9396": "facial ",
  "9397": "because they",
  "9398": "section",
  "9399": "-wing ",
  "9400": "hell ",
  "9401": "Afghanistan",
  "9402": "coverage ",
  "9403": "still\n",
  "9404": "conversation ",
  "9405": " doesn\u2019t ",
  "9406": "chocol",
  "9407": "don\u2019t\n",
  "9408": "hawai",
  "9409": " Geith",
  "9410": "sending ",
  "9411": "They're ",
  "9412": " they're\n",
  "9413": "website ",
  "9414": " tough",
  "9415": "Yes, ",
  "9416": ". Maybe ",
  "9417": "sponsor",
  "9418": "ing... ",
  "9419": "respect ",
  "9420": "request ",
  "9421": "don't want to ",
  "9422": "formed ",
  "9423": " war ",
  "9424": "stuck",
  "9425": "ase ",
  "9426": "here in the ",
  "9427": "know what",
  "9428": "myster",
  "9429": "structure ",
  "9430": "fi",
  "9431": "of their",
  "9432": "secret",
  "9433": "all-",
  "9434": "abus",
  "9435": "protests ",
  "9436": "las",
  "9437": "es. They ",
  "9438": "a number of ",
  "9439": "damage ",
  "9440": "dent",
  "9441": "we see ",
  "9442": " but the ",
  "9443": "dot",
  "9444": "split ",
  "9445": "machines ",
  "9446": "up of ",
  "9447": "Bash",
  "9448": " tend to ",
  "9449": "sort",
  "9450": "exhib",
  "9451": "Warren ",
  "9452": "ingredi",
  "9453": "said that ",
  "9454": ". I have ",
  "9455": "return ",
  "9456": "forever ",
  "9457": ". And it's ",
  "9458": "infrastructure",
  "9459": "across the country",
  "9460": "miles ",
  "9461": "domest",
  "9462": "$3",
  "9463": "made a ",
  "9464": "bodi",
  "9465": "International ",
  "9466": "opposition",
  "9467": "parall",
  "9468": "\nwhat ",
  "9469": "65",
  "9470": "harder to ",
  "9471": "itch ",
  "9472": "land and ",
  "9473": "Mal",
  "9474": "promin",
  "9475": "highlight",
  "9476": "inevit",
  "9477": ". Then, ",
  "9478": "it's very ",
  "9479": " bigg",
  "9480": "ramp",
  "9481": "requir",
  "9482": ". You're ",
  "9483": "e sub",
  "9484": "plane ",
  "9485": "other, ",
  "9486": "quiet",
  "9487": " both ",
  "9488": "e so",
  "9489": "stands ",
  "9490": "concept",
  "9491": "being able to ",
  "9492": "depending ",
  "9493": "a more ",
  "9494": "do you think ",
  "9495": "William",
  "9496": ". I would ",
  "9497": " clos",
  "9498": "ituation",
  "9499": "iss ",
  "9500": "address ",
  "9501": " there was no ",
  "9502": "success ",
  "9503": "AA",
  "9504": "Trump and ",
  "9505": "-to-",
  "9506": "ileg",
  "9507": "ency",
  "9508": "Atlantic ",
  "9509": "eil",
  "9510": "barri",
  "9511": "it was the ",
  "9512": "legend",
  "9513": "range ",
  "9514": " death",
  "9515": "easier ",
  "9516": "s. That\u2019s ",
  "9517": "third ",
  "9518": "advanced ",
  "9519": "to this ",
  "9520": " tap",
  "9521": "baseb",
  "9522": ". For the ",
  "9523": "battle ",
  "9524": "othes",
  "9525": "DeLore",
  "9526": "Mat",
  "9527": "wood",
  "9528": "ers can ",
  "9529": "English ",
  "9530": "Jef",
  "9531": "New De",
  "9532": "Florida ",
  "9533": ", as ",
  "9534": "in to ",
  "9535": "ice c",
  "9536": "lyric",
  "9537": ". What's ",
  "9538": "Britain",
  "9539": "style",
  "9540": "judge ",
  "9541": "range of ",
  "9542": "context ",
  "9543": "nast",
  "9544": "in which",
  "9545": "Wis",
  "9546": "ious\n",
  "9547": "ris ",
  "9548": "e, to ",
  "9549": " talked to ",
  "9550": "Catal",
  "9551": "Smith",
  "9552": "Jerse",
  "9553": " conf",
  "9554": "full-",
  "9555": "a dis",
  "9556": "grocery ",
  "9557": "evil",
  "9558": "activity ",
  "9559": "looking\n",
  "9560": "orbit",
  "9561": "mart",
  "9562": "gather",
  "9563": "members of ",
  "9564": "example of ",
  "9565": "a simple ",
  "9566": "ence of ",
  "9567": "iding ",
  "9568": "quir",
  "9569": "object ",
  "9570": "right\n",
  "9571": "imper",
  "9572": " through a ",
  "9573": "rible ",
  "9574": "you\u2019d ",
  "9575": "octor",
  "9576": "for me",
  "9577": "Oh ",
  "9578": "its\n",
  "9579": " they\u2019d ",
  "9580": "in American ",
  "9581": "s\u201d ",
  "9582": "Attorney General ",
  "9583": "it wasn\u2019t ",
  "9584": "every day ",
  "9585": "s \u2014 ",
  "9586": "ST",
  "9587": "ERT",
  "9588": "Obamacare",
  "9589": " Geithner: ",
  "9590": "aby ",
  "9591": "occasion",
  "9592": "what I ",
  "9593": "obstac",
  "9594": "licens",
  "9595": "instruct",
  "9596": "ened ",
  "9597": "pay for ",
  "9598": "we can't ",
  "9599": "2022",
  "9600": "heavily ",
  "9601": "half of the ",
  "9602": ". And he ",
  "9603": "PR",
  "9604": ". Before ",
  "9605": "defense ",
  "9606": "his own",
  "9607": "pread",
  "9608": "a th",
  "9609": "size ",
  "9610": " trigg",
  "9611": " the American ",
  "9612": " working ",
  "9613": "10,000 ",
  "9614": "how do you ",
  "9615": "continue ",
  "9616": "pushing ",
  "9617": "bus",
  "9618": "ance of ",
  "9619": " that they're ",
  "9620": "all of this ",
  "9621": "for some ",
  "9622": "accomplish",
  "9623": "features",
  "9624": "journalist",
  "9625": "ate and ",
  "9626": "emission",
  "9627": "from b",
  "9628": "a moment ",
  "9629": "es as ",
  "9630": "we need ",
  "9631": "oil and ",
  "9632": "fear ",
  "9633": "panel",
  "9634": "also a ",
  "9635": "pharm",
  "9636": "rok",
  "9637": "eck ",
  "9638": "Soul",
  "9639": "studio ",
  "9640": "made s",
  "9641": "change",
  "9642": "in other ",
  "9643": " teen",
  "9644": "a month",
  "9645": "how b",
  "9646": "ube ",
  "9647": "dangerou",
  "9648": "Street ",
  "9649": "side of the ",
  "9650": "I want ",
  "9651": "clean",
  "9652": " tour",
  "9653": "e shar",
  "9654": "y P",
  "9655": "generate ",
  "9656": ". Fr",
  "9657": "in many ",
  "9658": "for those ",
  "9659": "ment of ",
  "9660": "\nthere's ",
  "9661": "iday",
  "9662": "basis ",
  "9663": "ally to ",
  "9664": "sentenc",
  "9665": "it to the ",
  "9666": "see this ",
  "9667": "s. But the ",
  "9668": "jury ",
  "9669": " says ",
  "9670": "Washington, ",
  "9671": "frank",
  "9672": "atching ",
  "9673": "eless",
  "9674": "percentage of ",
  "9675": "rapidly ",
  "9676": "on it ",
  "9677": "vention",
  "9678": "ult of ",
  "9679": "1930",
  "9680": "nothing",
  "9681": "Emp",
  "9682": "glass",
  "9683": "a fil",
  "9684": "plo",
  "9685": "e thos",
  "9686": "compos",
  "9687": "reth",
  "9688": "astronaut",
  "9689": "struggle ",
  "9690": "does that ",
  "9691": "orry ",
  "9692": "United States, ",
  "9693": "photography ",
  "9694": "India ",
  "9695": "many of the ",
  "9696": "resident ",
  "9697": "weren",
  "9698": "it's not just ",
  "9699": "e, which ",
  "9700": "away from the ",
  "9701": "atmosphere",
  "9702": "zero",
  "9703": ". I\u2019ve ",
  "9704": "e\nof the ",
  "9705": "eless ",
  "9706": "Wiscons",
  "9707": "dispar",
  "9708": "it from ",
  "9709": "invis",
  "9710": ". Can ",
  "9711": "benefits ",
  "9712": "which means ",
  "9713": "e country ",
  "9714": "deal with",
  "9715": " and it ",
  "9716": "plastic ",
  "9717": "ized",
  "9718": "and-",
  "9719": "189",
  "9720": "ual\n",
  "9721": "Gul",
  "9722": "Bob",
  "9723": "businesses ",
  "9724": "probably",
  "9725": "philosoph",
  "9726": "people can ",
  "9727": "Sunn",
  "9728": "getting\n",
  "9729": "and the\n",
  "9730": "sanc",
  "9731": "Green",
  "9732": "gradu",
  "9733": "here\n",
  "9734": "ia\u2019s ",
  "9735": "on\u2019t",
  "9736": "in Iraq",
  "9737": " second",
  "9738": "see\n",
  "9739": ", and they ",
  "9740": "armen",
  "9741": "networks ",
  "9742": "jap",
  "9743": "Affordable Care ",
  "9744": "o is ",
  "9745": "wedd",
  "9746": "AM",
  "9747": "rare ",
  "9748": "s. - ",
  "9749": ". Their",
  "9750": "Academ",
  "9751": "it for ",
  "9752": "Mark ",
  "9753": " that they were ",
  "9754": "I found ",
  "9755": "gri",
  "9756": "father ",
  "9757": "barely ",
  "9758": "either",
  "9759": "on top",
  "9760": " this year",
  "9761": "pros",
  "9762": "power, ",
  "9763": ". First",
  "9764": "on top ",
  "9765": "size of ",
  "9766": "presence ",
  "9767": "ently",
  "9768": "a thousand ",
  "9769": "kind of the ",
  "9770": "getting",
  "9771": "lived ",
  "9772": "dim",
  "9773": "society ",
  "9774": "chance to ",
  "9775": "with that ",
  "9776": "already",
  "9777": ". That's the ",
  "9778": "a tiny ",
  "9779": "within the ",
  "9780": " these two ",
  "9781": "apartment ",
  "9782": "received ",
  "9783": "stop the ",
  "9784": "is there ",
  "9785": "is a very ",
  "9786": "make this ",
  "9787": "new s",
  "9788": "shared ",
  "9789": "Cathol",
  "9790": "ells ",
  "9791": "G ",
  "9792": "material ",
  "9793": "e word",
  "9794": "it tak",
  "9795": "Hawai",
  "9796": "Fin",
  "9797": "I m",
  "9798": "in a way that ",
  "9799": " truly ",
  "9800": "outside the ",
  "9801": ". They are ",
  "9802": "spark",
  "9803": "75",
  "9804": "for our ",
  "9805": "29",
  "9806": "daily ",
  "9807": ". They also ",
  "9808": "options ",
  "9809": "harder ",
  "9810": ". That is ",
  "9811": "for decad",
  "9812": ". My name is ",
  "9813": "At ",
  "9814": " today, ",
  "9815": "empty ",
  "9816": "ities and ",
  "9817": "opportunity",
  "9818": "Johnson",
  "9819": "had no ",
  "9820": "opinion",
  "9821": "selling ",
  "9822": "brand ",
  "9823": "only one ",
  "9824": ". But if you ",
  "9825": "is the s",
  "9826": " tell the ",
  "9827": "styl",
  "9828": "aggressive ",
  "9829": "prop",
  "9830": "PS",
  "9831": "pt ",
  "9832": "Olympic",
  "9833": "contract",
  "9834": "Valley ",
  "9835": "Bush",
  "9836": "engineering ",
  "9837": "stant",
  "9838": "e ship",
  "9839": "attention to ",
  "9840": "banned ",
  "9841": "ensions ",
  "9842": "regulation",
  "9843": ". Once ",
  "9844": "e in a ",
  "9845": "visit ",
  "9846": "aud ",
  "9847": "shif",
  "9848": "make that ",
  "9849": "states that ",
  "9850": " type ",
  "9851": "epar",
  "9852": "identity",
  "9853": "wood ",
  "9854": "years ago, ",
  "9855": "new m",
  "9856": "you've got ",
  "9857": "worked",
  "9858": "model ",
  "9859": "rated ",
  "9860": "bright ",
  "9861": "futur",
  "9862": "1920",
  "9863": " to try to ",
  "9864": "camera ",
  "9865": " a ",
  "9866": ", right? ",
  "9867": "cience ",
  "9868": "urvey",
  "9869": "went to ",
  "9870": "parts ",
  "9871": "column",
  "9872": "get this ",
  "9873": "would have been ",
  "9874": "pron",
  "9875": "reportedly ",
  "9876": "as far ",
  "9877": "analysis ",
  "9878": ". It\u2019s the ",
  "9879": "key to ",
  "9880": "riot",
  "9881": "Most ",
  "9882": "ingle ",
  "9883": " between the ",
  "9884": "eck",
  "9885": "Syrian ",
  "9886": "Vladimir ",
  "9887": "Str",
  "9888": "afraid ",
  "9889": "offens",
  "9890": "adel",
  "9891": ", just ",
  "9892": "runs ",
  "9893": "episode ",
  "9894": "protection ",
  "9895": "e\u00a0\n",
  "9896": "furn",
  "9897": "kind\nof ",
  "9898": "a bill",
  "9899": "he has ",
  "9900": "exception",
  "9901": "started\n",
  "9902": "so\n",
  "9903": "Do you ",
  "9904": "america ",
  "9905": "americans ",
  "9906": "( music playing )</i> ",
  "9907": "andidates ",
  "9908": "Kurdis",
  "9909": ". Ezra Klein: ",
  "9910": "soft",
  "9911": "You know, ",
  "9912": "never been ",
  "9913": ",000\n",
  "9914": "us that ",
  "9915": "crazy",
  "9916": "e. B",
  "9917": "it's about ",
  "9918": "1,",
  "9919": "congress",
  "9920": "... \u201c",
  "9921": "programs ",
  "9922": "bling ",
  "9923": ". Con",
  "9924": "rib",
  "9925": ". In 200",
  "9926": "catast",
  "9927": "where he ",
  "9928": "led by ",
  "9929": " during the ",
  "9930": "ung ",
  "9931": ". Whe",
  "9932": "\nC",
  "9933": "experienced ",
  "9934": "vow",
  "9935": "s\u2019 ",
  "9936": "wo",
  "9937": "your body ",
  "9938": "Rem",
  "9939": "hopefully ",
  "9940": "for most ",
  "9941": "Harry ",
  "9942": "s them",
  "9943": "apped ",
  "9944": "? Well, ",
  "9945": "years old",
  "9946": " teeth",
  "9947": "Paul ",
  "9948": "ition of ",
  "9949": "paper",
  "9950": "virtual ",
  "9951": "bright",
  "9952": "es is ",
  "9953": "Hor",
  "9954": "a bo",
  "9955": "murder",
  "9956": "Like ",
  "9957": "creen",
  "9958": "water, ",
  "9959": "ore than ",
  "9960": "billions of ",
  "9961": "et of ",
  "9962": "\ncan ",
  "9963": "fertil",
  "9964": "autonom",
  "9965": "recognize ",
  "9966": "aside ",
  "9967": "...\n",
  "9968": ". Today",
  "9969": "contamin",
  "9970": "clock ",
  "9971": "younger ",
  "9972": "morning",
  "9973": "anet ",
  "9974": "at that",
  "9975": "beginning",
  "9976": "Rich",
  "9977": "you're going to ",
  "9978": "judic",
  "9979": ". Its ",
  "9980": "become the ",
  "9981": "? Th",
  "9982": "White Hous",
  "9983": "sman ",
  "9984": "ing at ",
  "9985": "but also ",
  "9986": "Im",
  "9987": "afe",
  "9988": "graphic",
  "9989": " that I ",
  "9990": "Lik",
  "9991": "western ",
  "9992": "places like ",
  "9993": "kin ",
  "9994": "s, to ",
  "9995": "shouldn't ",
  "9996": ". It doesn't ",
  "9997": "know that",
  "9998": "umul",
  "9999": "Go",
  "10000": "visual",
  "10001": ". I want to ",
  "10002": "we will",
  "10003": "volunte",
  "10004": "comments ",
  "10005": ". Over",
  "10006": "Supreme Court",
  "10007": "\nand the ",
  "10008": ". Pl",
  "10009": "Who ",
  "10010": "ate to ",
  "10011": "NASA",
  "10012": "busines",
  "10013": " women",
  "10014": "committe",
  "10015": "unit",
  "10016": "adult ",
  "10017": " that can ",
  "10018": " system ",
  "10019": "UV",
  "10020": "at the end of the ",
  "10021": "cept",
  "10022": "physically ",
  "10023": "above the ",
  "10024": "a C",
  "10025": ". I am ",
  "10026": "\nthe same ",
  "10027": "people c",
  "10028": "will not ",
  "10029": "we sh",
  "10030": "sac",
  "10031": "Mont",
  "10032": "warn",
  "10033": "emporary ",
  "10034": " some of the ",
  "10035": "Mac",
  "10036": "closer",
  "10037": ". I just ",
  "10038": "reported ",
  "10039": "lens ",
  "10040": "nin",
  "10041": "look at this ",
  "10042": "here and ",
  "10043": "cool ",
  "10044": "knowing ",
  "10045": "able to",
  "10046": "had an ",
  "10047": "words, ",
  "10048": "grown ",
  "10049": "ituation ",
  "10050": "changes",
  "10051": "simul",
  "10052": "s. These ",
  "10053": "work with ",
  "10054": "his own ",
  "10055": "up for ",
  "10056": "become\n",
  "10057": "qualified ",
  "10058": "had this ",
  "10059": "s\nlike ",
  "10060": "moon ",
  "10061": "soul",
  "10062": "rav",
  "10063": "at the same ",
  "10064": "Korean ",
  "10065": "like \"",
  "10066": " to me ",
  "10067": "impos",
  "10068": "a total ",
  "10069": "devastating ",
  "10070": "with b",
  "10071": "homes",
[...]
